1111111011001101
0000001001101100
0000000100011011
0000000000101011
1111111001011101
0000000011110110
1111110100101111
1111111000111100
0000000100010101
1111110001111110
0000000010110001
0000000100011111
1111111011000000
0000000000111110
1111111100001011
1111111111110001
1111111101011010
1111111001011010
1111111000110100
1111111000111100
0000010110100110
1111101111000100
1111111111110111
0000010001011111
0000000101110100
1111110101010001
1111111000101011
0000000001101011
1111111110110001
0000000100001000
1111111111100110
0000010000001111
