memory_initialization_radix=2;
memory_initialization_vector=
110011100,
1111111011000101,
111111010,
1111111001011101,
10010111001,
1111111010001000,
11001011001,
1000100010,
1000100101,
1111110010100001,
1111111001000010,
110101100,
1001101000,
11100100,
1111111000000000,
10100010001,
1111111010100010,
1111110011001010,
1111111000010000,
1111111111110110,
1111101110010110,
1000000011,
1111111101001000,
101010101,
1111111010010010,
1111111110101100,
1111111101101001,
1111110101110011,
1111111100010010,
1111111100101111,
1111111010100111,
1000,
1111111111000101,
1010011011,
110000111,
10000011,
1111111010001010,
100111001,
111110010,
1111111001010101,
100000100,
1111110000011001,
1011011111,
10100101,
1111101111111111,
1101000010,
1111110010001011,
1111111110001110,
1000001010,
1111110001111110,
1111101101111000,
1111110110100101,
1100110111,
1111111000111111,
1111110011111011,
1110001,
11111011,
1110111110,
10011101000,
1111111101101000,
1111111100101100,
100001010,
10100101000,
1011100000,
1111111100010111,
1111111000000011,
1111110111101010,
1111110101001010,
11010001,
1111110100011100,
1111101000100000,
11001011,
100101111,
1111001001,
1111110101000010,
1111111110001010,
11000101,
1111101111111111,
1010111110,
100101010,
1010110011,
1111111111011111,
11000011010,
1111111100001100,
1111111000001101,
1001101100,
10110010,
1111110111111111,
1111101110110101,
11000100,
1100001000,
100110101,
1111111101000001,
1011011,
11111010,
1111110100110011,
1001100110,
1111111101101110,
1111110100010011,
1011010110,
1111110000010001,
1111101010010101,
1111111110000110,
10010101000,
1111111100100000,
1111111010101001,
10001100000,
1111111100111100,
1111111001010111,
10001110,
1111100000001000,
1111111110110110,
1000001100,
1111111110111011,
1111110110010100,
1111110101011001,
1111111111010011,
1000111101,
1111110010001000,
1111110001010010,
1111111001011100,
1111111010000101,
1111111100011111,
1111111100000100,
1110101001,
1111101100001111,
1000101111,
101010101,
111111111,
1111111001110100,
1111111001010010,
1111110110100110,
1011001,
1001010111,
1000010001,
1111111010110100,
1011001111,
1111111100100101,
1111110011011010,
11,
110000001,
1111111110100100,
1111111010010001,
1111111111000000,
110000,
1111110111000000,
1111110100111110,
1010011001,
1111111000010000,
1111111000101100,
1111111001011000,
1000101001,
1100011,
1010010011,
1111110001000111,
10100111,
101010000,
1111111011101101,
1111111110111011,
1111111100001011,
110,
1111111011010000,
110001001,
11110000,
1111111010111010,
111001,
1000110011,
1111110111010010,
10110001,
100001110,
1111111011101001,
111000010,
10111100101,
1111111001011111,
10101101,
1111110101001000,
1111111110000110,
1010010101,
11010111,
101101101,
10010101,
1111111000011110,
1110100000,
1111111101010111,
1111110110000010,
10000000101,
110010100,
100110110,
1111111110000101,
10010101,
1111111111010100,
1111101111010100,
1111100011010001,
1111110110111100,
1111111000101110,
110111110,
1111101111011000,
101010011,
11111110,
100001110,
1111110111010110,
10011100001,
1111111100001111,
1111111011010010,
1111111110001011,
1111111111110001,
1010100111,
1000110111,
1111111,
1111110111101001,
1111110111111001,
1110110101,
1111110111100111,
1111111101111011,
1111111100111111,
1111111111000101,
1111010,
1001000110,
1111111100000000,
1111111110011001,
1111111111110010,
110100,
1111110110001111,
1111111111101010,
1101001000,
1111110111010101,
1111111100001001,
1000000101,
1111111011010111,
10110111000,
111011,
1111110111010000,
1111111010010110,
111011000,
1111111011101000,
1001101100,
1000100111,
1111111101000001,
1111111010001110,
110110100,
111001001,
1010010001,
100010001,
1111111010011000,
1111111110110001,
101101100,
1001100010,
1110101,
1111111111100011,
1111111011000100,
1101100100,
10001110011,
100001011,
1111110111101111,
1111101011111111,
11110000,
1111110100101010,
1001011000,
1111110100110101,
1111111111101110,
1111111001000000,
1111111100101010,
1111111011101110,
1111101001000110,
1100011010,
101111,
1111000010,
10001001101,
1111111111011110,
100011110,
1111110011101001,
1111111111110011,
1111111101011111,
11111000,
1111110101010100,
1111110111010001,
1111101110100001,
1001110010,
1111110101111111,
100001100,
1100010010,
110111,
1111111111111000,
1111111011001101,
1011,
1010,
1111110100000101,
1010101,
1111101101000111,
100001010,
1010101100,
1110110,
1111111111001010,
1111111111100001,
1000101100,
101110101,
1011110000,
10111101,
1111111000111001,
1111111011001101,
10101111,
1111101011100000,
1011101010,
10001000110,
101110110,
1111111110001001,
1111110101011101,
1101110,
1100100111,
1000100010,
1111111000001111,
1100000001,
101010110,
1111111000011111,
1111101010011111,
1111110100101011,
1010101011,
1111111011110110,
1110100,
11011001,
10001001110,
111,
1111111100111000,
1111111110101110,
1111111111111010,
1111111000010001,
1111111010111000,
1111111,
1111111100110100,
1111111110111011,
11010100,
1111111110000010,
10000010011,
1111111001001001,
1111111100100110,
1111111100011000,
1111111011101111,
1111111111010111,
100101010,
1011010111,
11110111,
1110001011,
1111111010010001,
1010111010,
110110,
100110000,
1111111000001111,
1111101010,
110110,
11011110,
1111110100111110,
1111111011001010,
1111110001110000,
1000101110,
1111110011000000,
11000000011,
1101011,
1111110000110100,
1111111010101110,
1111111111011010,
1111111010101011,
11001100,
10110010,
1111110011110011,
1111111011011011,
1100000000,
1111111001001101,
1111111100011010,
1001100101,
1111110000100001,
10101,
1001,
10100010,
110001101,
1111110011000000,
1111110010010000,
1111101110100111,
1000101100,
110000000,
11,
101010000,
1011100001,
1110011,
10010110111,
1111110110111001,
1111110101000111,
1111000,
110000110,
1111111101000100,
100101100,
101111111,
1111111100101111,
1111110100110111,
1111101101001011,
1111111011111110,
100001,
1100110,
1101001,
1111111010111011,
1111111110000011,
101110100,
1111110111010101,
1111111100110010,
11101100,
1111110100010001,
11001001,
1100000,
1001001110,
1011000110,
1111111000000101,
1111111101011000,
1111110111010110,
1111110011001100,
10001000,
101100100,
1111111101100010,
1111111101101101,
1111110111011000,
1111111000001010,
10010000,
101111111,
1111101101100001,
1111111110000101,
1111110101101110,
1111111000111110,
1111110001100010,
1101000000,
100001010,
1111111001100010,
1111111011000001,
1011111100,
1111110100110001,
1111110111011000,
1000110001,
10111001,
1111111101001110,
1111111011100001,
1111111011100000,
1111111101110100,
10110101,
1111111100000001,
1000110010,
1111110110001011,
10101100,
1111111000110110,
1111101110111011,
1010001011,
1101100101,
1111110000011101,
101110110,
1111110101101001,
1111110100110001,
1001110,
1111111000100101,
1111111110110010,
1111110100011001,
1111110011000100,
1111110010010010,
1111110111000111,
1111111110001111,
1111111000111110,
101111010,
11110111,
1111111011011111,
1111110101010010,
1111111111010100,
100010001,
1100100111,
1111111010100111,
1111110000000001,
1010100010,
1111101110101000,
1111111000101011,
1111111110011100,
1111111001001011,
1111111001110001,
1111111100001110,
1111110111011111,
101111110,
11110001,
1111111100100001,
11110110,
1000011110,
10011111,
101100101,
1111111001101110,
1111110100110110,
1111001000,
1111111010001001,
10011000,
1111110001100010,
1111111000011100,
1111110110110011,
1011100011,
100010,
1111111001110101,
100101010,
1111111111111001,
1111110100111010,
1001110000,
1011000,
1111101110010010,
10000010,
1111111001011110,
110111011,
10100001,
10011101,
11111110,
101110010,
11010110,
1111111010010011,
110001000,
11111001,
1111110010011110,
10110111000,
1111001100,
110110,
1111111000010110,
10000110010,
101111010,
101110110,
110110100,
10110011110,
1111110001000001,
1111111000101101,
111101001,
1001010011,
1111111101000000,
1111110011101100,
1111111011111101,
101010011,
1111111110001101,
111001101,
1000001001,
1111111110010100,
1111110100001111,
111011010,
111,
1000110110,
10001110,
100000001,
1111111000110100,
1001001101,
1111101010111000,
1111111100010001,
1111111000101010,
1111111000010000,
100010101,
1000111010,
1111110011011000,
1011111001,
11001101,
110010111,
1111110001000011,
1111101111100001,
1100101000,
111000111,
1010111001,
1111110101101110,
1111111111011010,
1111111011001000,
101111000,
1111101001000110,
1111111010000010,
110101010,
1000000,
1111111000110111,
1011101110,
1111110110010111,
1001001110,
1111110100111001,
1000000011,
1000011110,
1010011,
111100010,
11111101,
1111110011,
1111111100001111,
1111111011101101,
1111111110111001,
11011111,
1111110111101001,
110000011,
1110010010,
1000101110,
1111111110011111,
1111111110110010,
1001000100,
1111111001010001,
1111110111101001,
1111111100011101,
1111111100111010,
1111111111101111,
110101010,
11011001,
1100100101,
1111110001110010,
1111110100000001,
110110010,
10000101010,
1111111011010110,
1110001,
1111111110101100,
111001010,
11000,
1111111100100110,
1111110011100110,
1010111001,
110000001,
1001001,
1010111001,
1111110011001001,
1111101111101110,
1000111110,
1111101000111110,
111011011,
1111111100010011,
1110111,
1111111000110000,
1111111000101010,
1111111110111100,
1000101100,
11011,
110011110,
1111111011111011,
1110011000,
11100,
1111110111111101,
10001011001,
1111110101010000,
1111111111101010,
1111111111111011,
101100110,
1111111100110101,
1111110011000010,
1111111100000000,
1111110011011110,
100101110,
1111111110001000,
1111110000011101,
1111111100010011,
101010,
110001,
10111100,
1111111000011010,
10010100,
111101100,
1111110001110111,
1111111001101010,
1111101101010000,
1111110010011001,
1011100,
111010110,
1111111100010100,
10101010110,
1111111100111001,
1111110101011001,
1111111010011100,
1000001010,
1111111011001011,
1111111110001010,
1111111111001110,
1111111011111011,
1111111100101001,
10100000001,
1111111100001100,
1111111000101011,
111011010,
1010101,
110110110,
1111110000100000,
100001110000,
1111100110,
1111111101001110,
1111101111011111,
11011101,
110000,
1111111001111011,
101,
1111111001100111,
1111110001011001,
1111111100011111,
1100001100,
10100011000,
1111111010101010,
1111101110001110,
1101001101,
1111110000000000,
1111110000010100,
1111111100100101,
1111111100010101,
111110000,
11111000,
1111111011100100,
10111,
10010101011,
111001010,
1111111101100011,
1111110111010001,
1111111101101101,
1111111000010011,
11000001,
1111111000111101,
1000011011,
10001010100,
10101011,
1111111110110110,
1000100101,
10010101,
111100010,
1111111000111010,
1111111100000011,
1001010100,
1111101100110011,
1001011010,
11010011,
1111111111110100,
10110010,
1111110000001000,
1100001100,
10011,
1111110101011010,
1111110110110101,
1111111111101000,
1101111100,
1111111111000000,
1111111110100001,
1111110,
1111111100010111,
1111111110111110,
1111110101001010,
1111111110010000,
1111111101001001,
1111111100100000,
1001111011,
1111111010110111,
111111,
1111111110011110,
1111101100101000,
1111111100011000,
111111011,
11110111,
1111110110001100,
1100011110,
11110011,
1111111101111010,
100100001,
1100001000,
10000110,
1100,
1111111101110011,
11011111,
11100011,
111101110,
101000011,
1111111011111100,
1111111001111111,
1111111101100110,
1111110101111110,
101111100,
1111110111110111,
10101000100,
101111001,
110011,
1111111110000101,
10000110110,
1111111010101111,
100011000,
1111111001000100,
1111111111110110,
1101100,
1111111010001011,
1111111000101010,
110011,
1111111101101110,
1111111101001111,
1111110101110011,
1111111110110001,
1101011100,
1111111101011100,
11010110,
1111110000111010,
100111101,
1111111100001110,
101111111,
1010101,
1111110110001101,
1111111001011011,
1111111010100010,
100000110,
1111111001001001,
1111101011000101,
11011101,
1111101111010011,
1001111,
1111110111001101,
1111111101001111,
1111111110111011,
101111001,
1001011101,
1111111000111000,
1111111100010011,
11010000,
1111111110010100,
10001010010,
100011011,
1111110100110100,
101011011,
11011011,
1111110001001110,
1111110011,
1111110111001100,
1111111011110100,
1111111001001001,
100011110,
101101010,
1111111101010010,
1111111011010111,
10000000,
11000101110,
1010010100,
1111111010000110,
1111111001100011,
1111111010110100,
10010001101,
1111110001000100,
1111110010110100,
1111111000010101,
1111111001111010,
1111111110000100,
11111010,
1111110000010100,
111101011,
1111110001111111,
1011100100,
100000100,
1111111100011010,
1001111011,
1111111011010110,
1111111011000010,
1111111110110001,
1100100,
1111101110011011,
1111110000101100,
1110101111,
1111110100110111,
1111111001111011,
11001111,
1111111010010001,
1111111100100101,
1111110000001101,
1001000001,
1111000,
1111111010011011,
1111111100110100,
111,
1011011101,
101001,
1111111001111000,
1111111101110011,
1111111011100111,
1111111011110110,
1111111101110011,
10100100,
1111111101110001,
10011011,
1111111111110110,
1111110011000110,
100101111,
1111111011111000,
1000011,
111011100,
10011000101,
1111110000100101,
1111110000111011,
10110011,
1111101101010000,
1111111001100000,
1101111111,
100100011,
101010001,
1001011101,
1111101101100110,
1111111111110000,
111111,
10001011,
1111111001001011,
1111101111111010,
1111111001110010,
1111110100010101,
1111111011011100,
1001111111,
1111110,
101000,
101010111,
1111111101111101,
1111111000001000,
1101100110,
1111110010001100,
11110000,
1111111101110011,
1111110101110110,
111100000,
111010,
1011110,
1111111111000100,
11110000010,
1111111000011011,
110001011,
1111111100110100,
1011010100,
1111110100111110,
1111111010111100,
1111110111111001,
110010110,
1111111010101010,
1111001,
1001111101,
1010000101,
1000001,
1111111110010011,
1011111000,
1111111100011110,
1111111010111000,
111100,
1101110,
110010011,
1111111011101100,
100110,
1111111110011000,
10001011100,
1111110101001111,
100001001,
10111011,
1000011101,
1111111110010010,
100100,
100010,
10000001101,
1101101011,
1111111111000011,
1111111111001101,
10100011,
10000100111,
110100,
1011011,
1111111110010110,
,
1110111,
100001001,
1111111110111111,
1111111001,
1111111110010000,
101000000,
101101001,
1111110101,
1111001,
1111111110000001,
1111111001110110,
1100100,
11000000,
1111111111111000,
1111111100010100,
1111110110110101,
1111110110110000,
1111111100001010,
1000010011,
1111111101100001,
1011011000,
1111111111011010,
1111111101101110,
1111111101011110,
1111111011111111,
1011110010,
1111110100101000,
1001100,
1111111111101101,
1111110110010111,
1111000111,
1111110100010110,
1010001001,
1111111100101011,
1111111000010101,
1011110010,
101110011,
11110110,
1111111000000011,
1111111111001001,
1111111111000111,
100010111,
110111010,
10000000101,
1111111100011110,
1111110001001001,
1010110110,
1111111111100110,
111101110,
100001110,
1111111010010000,
1001001110,
1000010,
11001101,
1010100000,
1110001,
1111111111111011,
1111111100011010,
101100111,
101110100,
1010010011,
100110111,
1001100100,
111010100,
11010000,
1111111000110011,
110101011,
1111110111010001,
1111111010100111,
1101101110,
1111111001011001,
1111111100101100,
10011101,
1100111,
1111111101001001,
1111111111101011,
1010010010,
1010101000,
101101010,
111101000,
10001011,
1111111111001001,
1111111001001110,
1111111110001101,
111001001,
1111110010001011,
1111101111110000,
1111100110010111,
101111100,
1111111100101101,
1111110010101011,
1111111010011001,
1111111100000001,
1111111111110110,
1000010100,
110110010,
1111111101101111,
1000100011,
1111110100111010,
,
100000101,
100001100,
1000,
100100101,
1111110011001000,
1111101100110100,
1111110010101101,
1111110101000011,
1111110011100011,
1111110111011110,
1111111100100000,
1111110000110011,
110110000,
111001011,
1111111101000010,
1100011011,
1111111110110010,
10000100101,
1100101000,
1111110110110101,
1111111110100101,
111000111,
1111111110101000,
1111101001101111,
1100100,
1111111011100100,
1111110110011000,
100010000,
1111111101100011,
110010010,
1001000000,
1111110011100100,
1111011,
1111111110100000,
1000101,
101111101,
110101001,
111100111,
110001100,
1111111111110001,
1111111101101000,
1111111001000100,
1111111010010011,
1111111111011101,
11001110,
10101101101,
111110010,
1111111111001101,
1111101111,
1010001,
1010,
1111111011001101,
1111110100111101,
1111111010100111,
1111111010100011,
1111110100000011,
1111110000101111,
1111110001110001,
111111111,
1111111100100011,
110110101,
11101011,
1100010000,
1111111101011011,
1110,
1110000110,
1111111011010111,
1111110111001101,
1111110010110100,
111000110,
1000110011,
1111111101001111,
11010100,
1110001000,
1111111101100011,
110001010,
1111111010000001,
100000110,
110001,
11000010,
1110111110,
1111110111011010,
100101101,
100010011,
1111110101101001,
100100100,
1010010000,
1101000011,
1111110110001001,
111011101,
1111111101100100,
1100000011,
111000,
1011010,
100111001,
10111110,
1111101101110110,
100101000,
1010011001,
1000011100,
101100001,
1111111011110111,
1001,
11010111,
110010000,
1000011,
1111111010011100,
1111110100000110,
1111111110001011,
1011011000,
100111011,
1111110011010010,
1001111000,
1111111011100010,
1111111011111100,
1111111111100101,
1111111001111101,
1111111010001111,
1111111000101100,
1111111101011101,
1111111000101000,
1101000110,
1001100100,
101010000,
1111110101010010,
1111111001000001,
10001111,
1111110111001010,
1111111101010010,
1111111101010110,
111011101,
1111111100101001,
111001,
10100111010,
1111111100100110,
10100100000,
1111111100101110,
100010000,
1011100000,
1111111111110001,
111001000,
110111011,
1001111010,
10110010,
1111110101111101,
1111110001000100,
1111110100000100,
1111111111011000,
1111111111010110,
1001110010,
1111110111101111,
1101110,
1111110011000000,
1111111000010110,
1111110110100000,
1011001010,
100111111,
1111111110101101,
1111110010010001,
1111111000111000,
10011010111,
1111111111010110,
1100110,
1111111101000001,
1010011100,
1001001,
111101010,
1111111001101001,
1111110110101011,
1111111001101110,
10001100,
1111111010100010,
1111110000111110,
110100100,
101001110,
1110011,
110000110,
11100010,
1111110100001011,
1111110011101110,
1111111111110111,
1111110110001100,
1111111001111110,
11000000,
1111110101100000,
1111111011110110,
1111110110111111,
111001111,
1101100,
1111111001100110,
1111110101111111,
1111111001100011,
100000001,
1111111110100011,
1100100,
1100000000,
10000101110,
1111111001011001,
1111101101111011,
1110000,
1001111011,
1111111011111100,
1111111101101110,
10111110,
1100110000,
1111111111001110,
1111111000000111,
1111111100100011,
1000,
1111111001010010,
1000010111,
1010000101,
1111101111101101,
1010010110,
100111110,
1111111111000110,
1111110110000001,
1111111010000011,
1011111111,
11001000,
1111110111110001,
1111111011110001,
1111111100110110,
10100110,
1101001111,
1111110100011110,
1110001,
1111101111,
10011000,
1111111010101010,
1101001,
1000111110,
101010011,
1011011000,
1111111100111100,
1111111001000111,
1100101100,
1111110111111000,
1111110111110111,
1111111100000000,
10001111110,
1011101001,
1111110110001101,
1110100,
1111111001010110,
10010000111,
110001,
100110011,
1111111111110011,
1111111101011110,
1000000010,
11111111,
1111111111101100,
100010000,
1111110010101000,
1011010010,
11010111,
1111111110111001,
11111110,
10101010,
1111111111110000,
1110110110,
1111111001110101,
1010111111,
1000110,
1111111011001111,
1111110011000110,
1111011110010001,
1111111011111101,
1010001010,
1000001001,
1111111100100011,
1111110110011011,
111111101,
11110101,
1111101111110010,
,
1,
1111011000,
1111111011111100,
1110100101,
1111111001001110,
101011001,
1111111111101011,
1111111110100011,
11110,
1100110,
1111111100011010,
1001101,
1111111110100100,
1111110110100111,
111000011,
1111111111010000,
101011,
1110000,
1100101010,
1111110101101101,
100001001,
11001100,
101010100,
1111110110110010,
11011100,
1000111101,
1111111011111011,
100001011,
1001110100,
1111111010101110,
10100111,
10110111,
1111111010011000,
1111111100011000,
1111110110011011,
1111110010111000,
1000000,
1000101101,
1111111110111111,
1111111110010001,
1111101100101010,
1111110100100000,
1111101100110110,
11111101,
1111110010101011,
1111111010110001,
1111101101101101,
1110001011,
100001111,
1111111100111101,
111001110,
100011,
100110110,
1110101000,
10111101,
1111110111010111,
1111111000100011,
110101,
1101100,
111110,
1111101111110001,
1101001,
1111111011100110,
1111111011001110,
110001010,
110111110,
10101100,
1111111101111101,
10101110,
1010010001,
101011001,
1010010011,
1111110001001001,
1111111111101001,
1111111011100001,
1111110101100000,
1111110110011101,
110111011,
110001100,
1111111110101011,
1111111101100110,
1101111001,
1,
1111101001000101,
1010011110,
1111110000111101,
,
111100100,
11111000,
1111111100011011,
100101001,
1111111110011101,
1111110111011000,
11111011,
1111101010100110,
1111110011011111,
1111111001011100,
1111111000101010,
1111111101111010,
101110101,
10100011000,
1111111010110111,
1000001011,
1111110010001100,
1001010110,
1111111001001011,
1111111001101000,
1111110101011100,
1001000001,
101110100,
11010110010,
1111111011101100,
1111111000011010,
1111111111111010,
1111111011000111,
1000100101,
1111110010111001,
1111111010111111,
1000110010,
1111111011110010,
1111111010011101,
1111111001010100,
110111011,
1111111010000111,
10101011,
111001110,
1111111101110000,
1111111101001101,
1000100,
1111111111111000,
1111111100011100,
1111111011101001,
1100001000,
1110011,
111100101,
11111,
10010110,
1000010010,
1111101111100010,
100111111,
10100011000,
110001000,
1111110110101011,
1111110100000010,
110101000,
100110010,
11000111,
1111111110001001,
100110,
111111001,
1000001001,
1111100110011110,
1001001010,
1011000100,
1111111111010101,
10000101,
1111111101111100,
110000100,
1001011100,
1111110110001100,
1111110010011100,
1111110010111010,
11011011,
10001110110,
1111110011101011,
11010100,
1010011000,
110110000,
1111111001001011,
1111111101,
11101011,
11100100,
1111111011011111,
1111101010111011,
10100001,
100100,
1101110110,
1111110110001111,
1111111100001011,
10111010,
11100000100,
1111101111100100,
111000101,
1000001110,
1111100111111011,
1111110010010101,
1001000110,
11111,
100010111,
1100111011,
1010100000,
1111110101100000,
1111111010110110,
1111111011101110,
101101011,
110011101,
100110111,
1111111001000111,
1101110,
1111011111,
110000,
1010011100,
1111111001001101,
1111111111011001,
100010000,
100011101,
111001011,
1111111000001100,
1111111011100001,
101110,
1111111101111101,
1111110011101000,
1111111110011110,
10010000011,
1111111101101001,
110001111,
1111111010011010,
111110001,
1000101,
11111011,
1111110111110101,
1111111000000010,
1111110010101000,
1111111001000100,
101011011,
101111000,
1111110101100111,
1111111101010010,
110001,
1110001011,
1111110110101111,
1111111111001011,
1011100011,
1110010001,
1100001100,
1111111010100101,
110010011,
1000010000,
101101111,
1111111101101101,
110001100,
1111111100110011,
111100011,
1111111110111000,
111110001,
10111000,
1001001111,
1111111100101111,
10100010,
10101001,
1111111110111100,
1111110111101010,
1111111110011101,
1111111011010011,
1111111111101101,
1111111111101011,
1001001011,
1101001100,
1111111011110011,
1111111011000010,
1111111110000101,
1111111001110000,
101011010,
1111111011010100,
1111111101111110,
1100001111,
1111111010011000,
1111011000,
1100110010,
100011001,
110001100,
1111110110111011,
1111110110000110,
100111110,
1111111111000010,
1111111101000101,
1111111110010100,
1111111100111111,
,
100010010,
1111111100000100,
1111111010111100,
1111110001000110,
1111111101101100,
1010000,
1110101101,
1111111001001001,
1111111110010000,
1001100100,
1111111101011001,
1110010011,
1111111100011100,
1111110110011110,
1111111110101001,
1111111101011010,
10100100000,
11101101,
1111111000101011,
1010110011,
10011100,
11101011,
1010010100,
101000111,
1111111000010010,
1010010001,
1111111010111001,
1111111010011000,
101011101,
10010111,
1111111001100101,
10111011,
1111111010100111,
1011111010,
10110101,
1001010111,
1111111010000010,
111011000,
1111110100011101,
1111111110101111,
110011011,
1111101111110000,
1111111111001110,
1111101110100100,
101110111,
1111111100010110,
1111111101100011,
1111111101000000,
10100011,
1111111011000011,
1111111100100110,
1111111001100011,
1111101100,
100010001,
1111110,
1111111100011100,
100011111,
1101101100,
1111110100101011,
1111111010111001,
1101000,
1111111001110101,
101000001,
10101110,
1111111101101100,
1010110101,
1111110001111001,
10101100,
1110001101,
100010011,
1111110111011110,
1000010101,
1111111110110100,
10001,
1001010101,
1111111100100101,
1111110110011010,
1111111111011101,
1100100101,
110101110,
1111110010011100,
1111110110000110,
11000011,
111001001,
10111111,
10000010101,
110010110,
1111111001000111,
101010,
10100101100,
1111111101100001,
1111110110111101,
1111111110110011,
1111111011101111,
1110110010,
111111101,
1111110101111011,
110000110,
11001101,
111000,
1111111001010101,
1111111001111001,
100100110,
1111111110111011,
1111101110011001,
1010100000,
101010110,
1010011101,
110100111,
1001101101,
11000001,
1111111110101101,
10101000,
1111110110101100,
1111111001110010,
1111111000101010,
101001111,
11010101,
1111110110111001,
1111111100001010,
10101101000,
100011101,
1101100,
1000101100,
1100110010,
1111111011100111,
1111111101101100,
1111111100111101,
10010010,
1111111000011000,
1111110110011111,
1111111010011001,
1111111111001011,
10110010,
1110100,
1111111101001001,
1111111101111011,
1111111110111100,
1111110101101001,
1111111110111000,
110110011,
1111111001101110,
1111110101100010,
1111111010010000,
1011111110,
10001110,
1111101001101001,
101010001,
1111111110000011,
111101111,
1111111111001110,
110101100,
10100001101,
110100,
1011110100,
10001000011,
1111111001000111,
1100011,
110101001,
1111101111001101,
1111111111001010,
100001110,
101001011,
11111010,
1101111100,
1111110000110001,
111111011,
1111111101100110,
1111110101101100,
1111101111100000,
1100101011,
111011000,
1101110001,
1101010100,
1111110111001001,
100101011,
101100011,
1111111001101110,
100100101,
1111101110011110,
101011011,
1111111111110010,
111,
1111111001101101,
1011000011,
111011100,
1111111111000101,
1111110001100010,
1111111010101000,
100001110,
11101011,
1111111100101001,
1111111000001010,
100011000,
1111111010101100,
1111111010000111,
1111101010110000,
1010001,
1001110,
110100100,
1111110100101001,
1111111000110011,
1111110000101111,
1111111000000101,
11100011,
1111110111000110,
1111110111011111,
110010001,
1000001110,
1111111101011100,
11101110,
111010110,
1111111011100000,
10100111000,
1111110001111101,
1111100110111101,
1000001000,
1111110110111101,
11101101,
10010100,
1111110100100100,
10010000000,
11000100,
1111111100101110,
1111111110001110,
1111111010000010,
111000000,
111100,
1111111101010100,
1000101100,
1111111101001100,
1111111000000101,
1111111010010100,
1111111101000000,
1111110101100100,
1000000111,
1100,
1111111110111110,
11010,
110110011,
101100000,
1000000010,
1111110010011000,
1101011,
1111111001011101,
1111111111011000,
1000011,
1111110011100110,
1111101110111000,
1111111110111101,
1101001110,
1011101101,
1111111111101101,
110,
1100000110,
10010000,
11111101,
1001011000,
1111111011000001,
1111111010000011,
1111111011000110,
1111110100011000,
1111110101100000,
1111010100,
1111111000001110,
1010,
1111111001111101,
1010011110,
1111110101010111,
1111111101111110,
100111111,
1111111100100111,
1111111010000001,
1111110010110001,
1111111100010000,
1111111111100001,
1111111011111011,
100001111,
100110110,
101000,
10000111110,
10100000,
1111110101001100,
10100101,
111010010,
100101101,
1111111011011000,
1110101,
1111111001111101,
100000110,
1111111111101111,
1111111011000100,
1111111110110010,
10011000011,
1110111,
1111111100110010,
10111100,
1010100101,
10100110101,
101000101,
1111111010111110,
111010100,
111000111,
1111111110000101,
1111111101001111,
1111111001111101,
10001100100,
1111110101100110,
11010010,
1011001,
111011100,
11011,
1001,
1100100001,
10100010,
10000010100,
1001101110,
1111111110011011,
1111111000110100,
1111110111110011,
1111111101110100,
1111111110111011,
1100110110,
1111110101000101,
1111101101000110,
1011001000,
1101101,
1111111010010000,
1111110101110000,
1111010011,
101101111,
1111110001110100,
1111111111011001,
100110110,
1001,
1110000100,
1111101111110111,
100000000,
1111111110010100,
1111111110010010,
1111101111101000,
1111110100101111,
11110011,
1001010000,
11011100,
1111111011011111,
1111111000010001,
1010,
1111111100000001,
1010100111,
1111111010111011,
1100101,
1100100011,
1011010,
10001100,
1110111011,
1011101,
1010010101,
111010001,
1111111011000010,
1011000000,
1111110111001000,
1111111001001101,
1001001111,
1111111011101111,
1111111101111010,
101011010,
1111111101010000,
100110010,
1111111110000101,
10000111011,
1111111010010000,
1111111011110000,
1100100,
1111110110001010,
1111110111111110,
1010000100,
1111111011000101,
1111110110100010,
1010111110,
10101010011,
1010110000,
1111110010111101,
10001100010,
1111111110110100,
1010110000,
1111111011100100,
1111110011110011,
1111110100111001,
1010001011,
1111101110001101,
1001110,
1111111100111100,
1110110101,
1001001111,
1000101,
1111101110101111,
1111111110000100,
1111110100111111,
1111111110111111,
1111110000010101,
1101010101,
1001000010,
11110,
1111110010010101,
1111110111010000,
1111111011001011,
1101001001,
1111110110000111,
1111110101100000,
101110011,
1111111111000111,
1111100011011101,
1010001000,
10111100,
1111101001100001,
100011001,
1111111100000000,
1111111000011001,
101101010,
1111110100100000,
10000100,
11100011,
10000100,
10001101,
111110,
10101000,
11000101,
111001011,
110001101,
1111111001010111,
100110001,
10100011111,
1111110101001110,
1111110000110011,
1111111110100110,
1111111000111100,
1111111100001101,
1111111110110010,
1111111011111000,
1111111001110001,
1111111101110100,
1111101101000001,
1111111000111000,
1111111110101110,
1001010110,
11111110,
100110110,
11001100,
10101100,
101111000,
110011011,
1111111111010111,
1111111100111100,
1111111011001110,
10011001,
1111100000,
1111100101111111,
1010000000,
11011111,
1101100111,
1111001100,
1111111011011101,
1111110000101101,
10001010010,
1111110110001111,
110000001,
110011001,
1111101101100111,
1001000100,
1001011000,
1111111100011010,
1111111010001010,
1111111010000010,
1101001101,
101101010,
111010,
1111110110011110,
1111111111111011,
1111110101111111,
110000101,
1111110101100100,
1001111010,
1111111101000100,
1111111111110010,
1111110101111100,
1111110010010010,
1111111101111101,
1111110111110010,
110110100,
11101111,
10100101010,
101000110,
1111111110110001,
100100010,
1011010,
11001001,
1111001011,
1111110000011111,
1111111100110100,
1111111100010001,
1111111111001110,
1111101111010110,
1111111011110110,
1010110110,
101000110,
1101101010,
1111110101011011,
1111110101001101,
1111111100100001,
10101,
1000110010,
1111110111010011,
1111111011010111,
10010110,
1111111001011010,
110000010,
1111111001110101,
10010111110,
1111111001011011,
1010111010,
1111110001010011,
1111111101001001,
1111111101101101,
1111111011011011,
1111111000011001,
1111111110011110,
1000110001,
10000000010,
10010110100,
1000101010,
1111101000011010,
100111001,
1011010,
11001111001,
1011100,
1000110111,
1111111100101110,
1111111101100110,
1100001000,
1111111001010011,
1111111111100101,
1111111010011111,
1001111,
1111111101000101,
111011000,
110001,
1111101111001101,
1111101010110010,
1111110111011101,
1000101101,
1111110111110100,
1111110011011100,
1000111011,
1010001010,
1010100000,
1111110100010010,
110110101,
1011010001,
1111101110,
1111111101101010,
1111111000011100,
10010000,
110010001,
1111100100111110,
1111111111100010,
1100001010,
1111101010100000,
101011110,
101101001,
1111111001010111,
11000101,
10010111010,
1111111101101011,
1111110100111010,
1111111000111110,
100111100,
10011001,
1110011010,
1011010011,
111010110,
1011111100,
1111110011101010,
11011000,
1111110100100000,
10000110101,
1111101110000111,
1100,
1111111100111110,
1111111101000010,
1111110110001001,
1100000100,
10000011110,
1111111101110001,
1010110001,
1111110110111001,
1111111111010011,
1111111011111101,
1000111010,
111110100,
1111110111011001,
1101110,
1111110101101001,
1111111001001110,
1111,
111,
1111110010000111,
1111110101000001,
10001110,
11000101,
1100010001,
10010011101,
1111111110001001,
1111111111000111,
111110000,
1100010,
1111110111110010,
1111111111100110,
1111110110001110,
11100,
1111110110110101,
1001000100,
1111101110101001,
10101001,
1010110010,
111011011,
101011110,
1111111110100111,
1111111101110100,
100011111,
1111111101011011,
10000010,
1001001111,
110101010,
1111101001110010,
1111110111100111,
1111111100100010,
1111110001001111,
1111111101010000,
1111111111100001,
1011100001,
111001111,
10011100011,
11001000110,
1111111110000011,
1111101,
10010,
1001000010,
10010011,
1111111101010010,
10010011110,
111010111,
1111111001000000,
1111111111100000,
1111110010010100,
1111110101100101,
11011001,
11001001,
1111111011000011,
1111111011111011,
11101001,
1111110110110110,
11111000,
1111110111111101,
1110101,
1111111001110111,
110001001,
1100100,
1100101110,
100101011,
1000001000,
1111111001011010,
1111110000010110,
1111111001011001,
11101001,
1000001100,
1111110011010010,
10000110001,
10101110,
1111110101110001,
1111110001110001,
1111111111110111,
1111111101000110,
1111111010100000,
10111100,
1111110100100011,
10010111,
1111011011,
1111110111101001,
1111111110110110,
1101001111,
1111111010011001,
101111000,
111111001,
11110010,
1111111100000110,
1111110111000110,
110100110,
100010100,
1111111101010010,
1100000000,
1111111100110000,
1111111110100010,
1111110100001011,
101100,
1111110010101100,
1111110110110001,
10101100,
110011110,
10000111011,
1111111111011110,
100111001,
1111111010110100,
1111110001011011,
111000000,
1111111010111111,
1111111010010001,
1111111000001111,
111100010,
1011011011,
10010,
1111111001001100,
10110101,
1111110100011001,
1111100010,
100101,
100110100,
1,
100000,
1111110110010111,
1011000000,
1000110110,
1111110100001111,
10011110,
1101001110,
1111110100001101,
1111111111010100,
1111111111011111,
1111111001101110,
10111010,
10010110111,
1111111000100101,
1111110001111011,
1111111101100100,
1001010101,
110000100,
1001100111,
1010010110,
1100100000,
1010111000,
1111110000010101,
1111110001111011,
111110,
1111111101110010,
1111101111110010,
1111111111111010,
10110001,
1101111011,
1111111101111000,
1011010011,
1111111110011010,
10111110,
1111111111110010,
1111111010110100,
1100101000,
1111101100001011,
1100010,
11111000,
1111110000001100,
1011001011,
111110000,
100000001,
1111111010000001,
111110010,
111011100,
10110100,
1010101,
1111111101001000,
1111110111001010,
1111110100000010,
1111111100100101,
1100000100,
11011010,
1111110010000111,
11011100,
1111111010101000,
1100001111,
11011101,
1111111100010111,
1010100000,
1110000,
101101101,
1111110101111111,
100110,
11111,
1111110100011011,
1111101111001100,
101110100,
1111111111000100,
101110,
1111010,
1111111101001111,
1111111110100110,
111011100,
1111110100110000,
1111110111100000,
1111110010000100,
1000011011,
1000010,
1111111010000101,
11001110011,
1111111011110101,
10100,
1111111110111110,
101100111,
1111111110011101,
1101000,
100111,
10111001,
11000000000,
1001010011,
111101111,
1111111111010010,
1111110110100010,
1111110110110101,
1111111100001111,
11001011,
1010001010,
1111111100101010,
1111111010110000,
1111110100111011,
1111111001101111,
1111111110011011,
1111111101100111,
110110010,
111001110,
10000001101,
101110,
1111110010101100,
100010,
11001100,
100010001,
1010111110,
1101110,
10011100,
1111111110010101,
110001,
10101000,
1111110000100000,
1010110000,
1111111111000100,
1111111110101110,
101001,
1111101011000001,
1111101110101101,
100011001,
1110100011,
111000011,
111001,
1110011,
111000000,
10110110,
100000001,
1111111100111111,
1010000000,
1001000100,
1111110011010101,
1111110001101111,
1111110101101001,
1111110101000101,
1011110011,
1111111100100111,
1000011110,
11010111,
1000001110,
1111110110111101,
1111111110111000,
10100010,
111110001,
1111110110110111,
1111111101000100,
1101010001,
1111101010000000,
1111111110100010,
10111000,
1110100000,
1111101011,
1111111111001010,
1111110010111011,
1111111111111101,
1111110101001101,
1111110011111000,
1111101001010000,
1111111111001011,
101001110,
11111011,
1111111101100100,
10000010010,
1111110010111100,
10011111,
1111111111101001,
1000110111,
1011000111,
1111111001001100,
1010010101,
1010100111,
1111101101110110,
1111011110,
1111110111001101,
1111110101011110,
1111111110100000,
1111111110101000,
1111111110101100,
1110001011,
1111110110101011,
1111110111110100,
1100011,
1111111010001100,
1111111001100001,
1101100001,
10000011011,
1111111010100000,
1111111111110011,
10100000,
100000011,
1000000010,
1111111010111000,
1111111101001010,
1111111010110010,
101110110,
1111111110111101,
111111010,
10000011001,
1111111101110001,
1111111001101001,
1111111100111001,
100000,
1111110011101010,
1000,
1111111000100000,
100000010,
11101101,
1111111100101100,
1111110111100001,
1110100,
1111111001100010,
1100100100,
11011111,
10001111,
1111110001000110,
1111111111110111,
1011111111,
1111101101000011,
1111111111010111,
1111111010111111,
1101000010,
1111111110011000,
1111111011000011,
1000011011,
1111111110101001,
1011001001,
1111111111010011,
100010010,
1111111101110110,
1111111101111100,
1111111110000010,
111001010,
1111110100000000,
10010111001,
1111111010011100,
1111110001101010,
1111110100111000,
1001100000,
1111110000000001,
1111101100111110,
1111111110101101,
1111101111000101,
1111111100001111,
1111111100010101,
1011011010,
1111111100111000,
1111111100111101,
1001001101,
10010011,
1111111101000110,
10000110010,
1111110110111100,
1111111110101101,
1111110110001111,
100100101,
1111111011011010,
101110010,
1010101110,
1111111011110001,
1111101100000000,
1111101110000110,
1111111000000011,
1111110000110001,
10110000,
1010011101,
1011101110,
110010110,
1111111011011111,
1001110111,
1111111010111100,
111110,
10000110110,
11001111,
10010100,
1010000,
1001010101,
1111111100011111,
1111111101110110,
1111110011101010,
1101010,
10101101,
1110100111,
101001010,
1111110101110010,
10101011101,
10001010,
1000011001,
11110011,
1111111101111110,
110100,
100100100,
1111111110010100,
1111110011000101,
1111111100011111,
1111111111001011,
1101010,
100011010,
10011101100,
1111111000011101,
1111110111010000,
110011100,
1001100000,
1111111111000111,
1111111011011110,
1111011011,
1111111101111110,
110000111,
1111110001011000,
1101110011,
1100111111,
1101101011,
1111111011101000,
1111101010000110,
1111110111001111,
11001001,
1111111100011010,
1101011010,
1011010,
1111111010100110,
1011000,
11011,
1111111001101010,
1110,
1111111011100100,
1111101110000111,
1110110011,
1111110001111011,
1111101110111111,
1111110111,
1111100100111011,
100110011,
1111111001000110,
1011010100,
101100100,
1111111010111100,
1111110111101000,
1111100110001000,
1001110010,
1111111111001101,
1111110111111101,
1110001100,
1111111100011110,
1111110111111101,
11011001,
1111111110000001,
111001101,
1111110010100111,
1111110001101111,
100110110,
11110,
1111111100011110,
101011011,
1111110011101100,
1111111000110101,
1111110111100000,
1111111001100011,
10100010001,
1111111111001100,
111000,
1101001110,
1111110100111111,
1111111000011101,
1111101111100011,
1111110100010110,
1111111100001001,
1111111101010100,
1111111110000001,
100,
111000111,
1111111110001011,
11110,
1111111100100101,
10010100000,
10000011000,
1111111110100011,
1010,
1111111111000010,
1111111110111010,
1111111110110110,
1111111010001001,
11100101,
10000010,
1100000,
1110,
1111111101001011,
111011010,
1111111000110111,
1111111000101101,
1111111011001101,
1111110111110110,
1010,
110,
1111111101000011,
100111011,
1111110100100110,
1111101101111110,
1111111101101110,
100100100,
1111111000011110,
1111111000000101,
100101101,
1110011,
1101111001,
1111111100011110,
1111111101100111,
1111111011100000,
1111111111111100,
1111111000000001,
11101100,
1111111111110101,
101100100,
1111111111010010,
1111110101011101,
1100001,
1111110110100111,
1100110100,
1111110010111110,
1001101,
10010000010,
100001010,
1111001,
111001,
1111110100100001,
1001100011,
1111111111000001,
1001100111,
1111110111100000,
1001110101,
11111101,
1111111000101100,
1111111101010000,
1011100,
1000010100,
101110100,
1000010010,
110110111,
11000010,
1111111010011100,
110000001,
11110110,
100000101,
1111111101010111,
1111111011001011,
1011011,
1111110011011011,
1111110011010110,
1111110000010101,
1111110110111111,
11001011,
10001,
110111100,
1000111000,
1111101101011001,
1111101,
10010011100,
10000101000,
1101111111,
1111110011000100,
110111111,
1111111010110111,
1000011111,
10011100111,
101001111,
1000001110,
111000000,
1111111101101011,
1111111101000111,
1111111111001000,
110011101,
1011001011,
1111111001011001,
10000000,
1111111100100111,
1111110111111011,
100011111,
1111111011011110,
1101111010,
1111110001100111,
1010100100,
1111111110000001,
10110,
1111111001110100,
1100001000,
1111111000111010,
1111110100000011,
1111111110111110,
1111110000110001,
110001001,
1111101001100000,
1111111101000000,
1111111101000001,
10000000001,
1111110011,
1111110011110101,
1001011110,
10011000001,
1111111100001100,
1111110100010100,
1111110111011111,
1111111110100001,
1111111010011010,
1111111111011100,
10011100,
1111110011111011,
1000100001,
1111111000001000,
1111111101110101,
10101,
1111111110001011,
1111110100001100,
1111000000,
1011000101,
1010000001,
1111110101110010,
1111110010001100,
1111101111100110,
1111111010001001,
11101001,
1111010010,
1111101111010011,
1001011001,
1101001110,
1001011110,
1111111100010011,
1010110010,
10110001,
1111111001000010,
1111111110100010,
10110111000,
1111101110100011,
10111001,
1111111101100001,
111101001,
11000101,
1101110,
101110,
1111110111000110,
1111011,
110100,
1111110101010010,
1111111011100011,
10010001111,
1111110101101100,
1111111011101101,
1111111000101101,
10001111001,
1111111110010111,
1001000000,
1111111010110100,
1111111011001100,
1111111110110001,
10100001111,
1111101101111100,
1111111010101001,
10000101000,
1111111001011001,
111000100,
1100111011,
1111111000001110,
1111110011011101,
11101010,
1111110011111100,
1011011,
1000001010,
1100110,
101110000,
100110100,
1111111101000100,
1111111010101001,
101001,
1000111011,
1111111011010111,
1111110100100111,
1010101,
1111111000110010,
10100101,
1111111101111001,
1111101101111110,
11010110,
110011001,
1111111111010000,
11110,
1111111100010011,
1011110011,
1111111110110001,
1111111101010010,
1111110,
11101010,
101111111,
1111111111110101,
1111111110101001,
1111111010100010,
1111111100000001,
1011110100,
1111101010111011,
1111111101010111,
100001010,
100010,
1111101101011100,
10011011100,
1011001000,
1111101011100010,
101110100,
1111110100000110,
100111000,
1111111011001111,
10011011100,
11000010,
1000111011,
1111111011000110,
1111110011000110,
1111111111001111,
1111111000000010,
1101111,
1110,
1111111111001111,
10010100001,
1111110011011101,
1111100000,
1111111111000100,
1111111111001000,
1110011010,
10101110000,
1111111001110110,
1111111100010010,
111001001,
1111111001100100,
1111111010110000,
1111111011100001,
100100,
1101000011,
1111110111001100,
1111111100010110,
1001100000,
1111111011011011,
1111111001101010,
1110011100,
1111111110000011,
1111110010101101,
1100,
1101100100,
101011011,
1111111011001011,
1001110000,
10010110110,
1111111010000110,
1111111101001011,
1001001,
1111111100010011,
110111001,
1100000110,
1011011011,
1011101111,
110111110,
1111111101001010,
1111110111001101,
1111111010111011,
1111111110100100,
1000100,
1000110110,
100111000,
1111110110110100,
1011001,
1111110110110101,
11011001,
1111110100000101,
1111111101000111,
101,
1111110110101001,
110001001,
1111111001010011,
101,
110001010,
10011100,
1111111001010000,
1111110100101010,
10011001101,
1111111110001011,
1111111111000000,
100110111,
1111111011110110,
1111111101111111,
1111111111110000,
1111111111010100,
101111011,
1111110111111010,
1111110110000001,
10010101011,
1111111010011110,
1111110100010101,
1110101011,
1111111000111111,
1111111011001010,
1101000010,
1111111001000011,
1111101111010101,
1111111111001010,
1111110101100111,
1111110101001101,
1111000111,
1111111110000111,
1111111001011001,
11011100,
1111101100001011,
110100011,
11110,
1111110001000111,
1000001111,
1011010010,
1101010011,
10000111010,
1010111010,
1001011101,
1111110011001100,
1111110001101011,
1111110110111110,
10001101,
1111110100000110,
11000110,
1110001,
1111111101111100,
1110000110,
1111111101001100,
1111101101100100,
1111111000010111,
1111111101100111,
1111111110101111,
1111101011011001,
1111111010100011,
101110010,
111101000,
1111111011001101,
1111111000110101,
1000101000,
1111111000000011,
1101111,
10000101,
101110010,
1111111111000001,
1111111101100110,
1110,
1111101101101110,
1111111011111000,
1111111000010010,
11001,
1111111010010111,
10111100111,
10101001,
1111110111010101,
1000100001,
1000001000,
10110110000,
100010010,
110101011,
1111110010101001,
1111101000,
10111101,
1111111101100100,
1111110001000011,
1111110111001111,
1111110100100100,
1000100100,
1111111000011100,
1111101111000110,
1111110101100000,
1000011,
101010000,
1111111110001001,
10011000111,
1001110,
1110100001,
1111111010111000,
1111111101110111,
1010110111,
111110000,
1001100111,
111001100,
1111111110110100,
110000011,
1111111000101011,
1101011111,
1111111010100110,
111010111,
1100001001,
100000110,
1111111000110101,
1111110110111010,
1,
1111111100011110,
1111111100110100,
111011010,
110001111,
1111,
1111111010111001,
10010010,
110111001,
1111110101110101,
100011101,
110000111,
1011111,
1111111011101011,
11100010,
1111110111101101,
1111110100111001,
10000000000,
1111110100111100,
11010110,
1111110100000111,
1111111100101100,
1011111011,
1111111000001011,
1111111001111011,
111101,
1111111011100011,
1111111000010100,
1111111111010100,
1111110000010110,
1111110111011011,
1010001111,
1111101010111000,
1111111110010011,
11111100,
10110101001,
1111110100011000,
1111111110110001,
10110010,
10001101100,
1111111101100010,
1000011110,
1111101011011010,
1110100010,
1111111000011111,
1111101101101000,
11001,
1011111111,
1111101101011001,
1000101011,
1001011001,
11001101,
1111101101111000,
11001110,
1111110110111111,
111110,
10111110,
100100000,
110001100,
110100100,
1111111010001100,
1111111010111101,
1111110011110000,
1111111010101011,
100,
1110100110,
100000111,
1000100001,
1100111111,
1010000,
10101010,
111000,
1111111011001110,
1000100,
1000110,
1111110100101111,
1111111110101111,
1000011101,
1111111001001011,
111000000,
1111111001101101,
100100110,
110100,
1111110101101111,
1111111101100000,
1011111,
1101111110,
111000100,
1001011111,
111001101,
1111110110000101,
1111101110011010,
1111110010010100,
1110100111,
1111111011111101,
1111001011,
100101111,
1111110101000010,
1111101110111110,
1110110,
11011100,
1011101110,
1000011,
1111111110001011,
1100111101,
10110001,
1111110101010001,
11001,
1111111011001101,
1111111110100011,
1101100101,
101111100,
11101101,
1111111110111001,
101011110,
10110,
1011101,
1111110100011010,
101001001,
110011010,
1010101011,
110110001,
1111110001111011,
1111110100100001,
10000010100,
1110011,
1111101101101000,
1111111010110101,
111000110,
110000111,
110110100,
1101000001,
1100001,
1111110110101000,
1100010101,
111101111,
1111111110000101,
1111110011000001,
111011101,
1111110111111101,
1111110110100010,
1111110111011100,
1111111111110001,
1111111100010110,
1111110111111111,
111010,
111110011,
1010001001,
101111011,
100010011,
1111111110100100,
1111110101000010,
10001111001,
1111111110110100,
1010010001,
100010111,
1111111100000011,
1000000,
1111110110110111,
1010111010,
1111010000,
10000100,
1111110000011100,
1111101101011111,
1111111101101011,
1111111101000001,
1111111010110111,
1111110100111111,
1111111000101111,
1010110000,
1111111110110011,
1111111000110011,
101010001,
1111111010100111,
1100100111,
1111110101101001,
1111111010010110,
1111111010101010,
1111110101110001,
1111111011111010,
1001100,
11111010,
111010,
1111111111110111,
111100001,
11011110,
1111111100100110,
101100000,
100000110,
1011100,
1010111001,
1111101100010110,
101110100,
1111111010001000,
110010,
1101011,
10111100010,
10110101000,
1111111011110101,
1111111100001000,
101100001,
1111111111001001,
10010000,
1111111111001100,
110001100,
1111111011000110,
1111111101110001,
1010110011,
1110001100,
1011100011,
1100110001,
100000,
1001000111,
1111111110010110,
1111111101101111,
10000000010,
1111110101101001,
1111110100000001,
1111111010100110,
1111111101110000,
1111110100011001,
10000111100,
1111111111101111,
111011111,
1111101110101010,
1001110,
1111111110101100,
1111111111110110,
1111111011010110,
1111111010011110,
1111110110111100,
1111111101010100,
1000010001,
1011000011,
101010100,
,
110111101,
111101011,
1111111001001010,
1111101110011000,
1111110101110010,
101110010,
11101111,
1001101100,
101001111,
10011110,
1111110001010011,
10101001,
110000011,
1111111101101100,
1111110011001110,
1111010010,
1001100001,
101111000,
1111110001101001,
1111101110111101,
1000011001,
1111111101011011,
11011001,
1101101101,
110101,
111001100,
110110010,
11,
1111110100110010,
111011110,
110,
1111111111000101,
1111111110101010,
1111111100111110,
10110100000,
1001001110,
11,
10110101000,
1010010,
1111111001011101,
11010000,
1001010,
1011011100,
10110000,
1111111101101001,
1111111011011101,
110000001,
111110000,
1010000000,
10000100,
1000101111,
100110101,
1111111011100011,
1111110001000001,
1000111100,
1111111000010111,
10,
1010011101,
100010,
11101101,
1001110100,
1111101101001001,
1111110010010101,
1010111100,
101011001,
1111111011111011,
101000000,
1100000111,
11110,
1111111001110000,
1111110111000011,
111101110,
1111111110010100,
10000000,
101001000,
10010001,
1111111001101001,
1111110100110010,
1111111110110111,
1111111000001100,
1111111011111110,
1111110010000101,
111010101,
1110110100,
1010000,
11100010111,
1111111010101110,
101001010,
1111111110101110,
1100010000,
1111111101110111,
1111111001101111,
1111111110001001,
1001010111,
1111111010001001,
1110101101,
10110110,
1111111000111011,
1111110011001011,
100100000,
1011101,
1111110110010100,
1111111011111001,
1000001101,
1111110110010001,
1111110100101111,
1111111111001100,
1111111101001100,
1001001101,
10101010100,
101110100,
1111111101000111,
11101000,
1111111010100111,
11111011,
1111111111001111,
1010010010,
11010010000,
1101100110,
1000011111,
10011101011,
1111111111101001,
1011011011,
1111111101001100,
100111,
1100000011,
1111111110101100,
1111110111010011,
1111110100010001,
1000011110,
1111111011110000,
110100001,
1111110011110010,
11100110,
1111111000111110,
1111111100101111,
1010000,
1111101111100110,
1111111011110000,
1111111101011000,
1111111010110111,
110110111,
1111110110100101,
10010,
110001001,
100000000,
10010011,
1010101,
1111111011100010,
1111110001001011,
1111101101100100,
1100100100,
1111111100111101,
1111111110001011,
1111110111111010,
1111110110111101,
1111111010000010,
110010111,
1111111100111011,
1111111111001000,
100101001,
1111111100110000,
1000111010,
1111111011010110,
10011010,
1111111100101010,
11100010,
1011011,
1111110011011010,
1111111001011011,
1111110101100111,
100001011,
1111111111011110,
1111111111010001,
11110000,
1111111010001001,
1111111111100001,
1110001010,
1111111011001111,
1111110100000100,
10011110,
1111111001010001,
1111110000111101,
1010011010,
10110000,
1111111010001011,
1111111101011100,
1000101,
1111110100110011,
1011001011,
1111111000000011,
1001100001,
100010,
101001101,
101100000,
1111111001110100,
10110000000,
111010111,
1111101100110110,
11110100,
11100,
1111110110110010,
1111110001011011,
10110011,
1010010111,
111000001,
101100,
1001100011,
1111111000001110,
1000010011,
1101011,
1111111010101001,
1111111100000001,
10101111100,
10001010100,
1100011110,
1111110000100000,
110000110,
1111110101100011,
1111111001101100,
1000001011,
10000010,
110010100,
1111111101001001,
1001001,
100110011,
1111111101000001,
10100110,
1111111001110101,
110110110,
1111111101010100,
1111111110101101,
1111111111010011,
1111111000111001,
110111101,
1111111000010101,
1111110110101000,
1111101100000111,
1111110110101110,
1000011001,
1011011101,
1001100110,
1111111010001100,
1111110000110001,
1111111101111000,
11101101,
1111111010110001,
1111111111101111,
1111111010001011,
1111111110001110,
10010001,
10110001,
1111110010111001,
1111101110001000,
1111110111010001,
110010111,
111111010,
111,
1111111000000100,
110,
1111111111011110,
1111111101000100,
1111111111001001,
1111111010000110,
1001110111,
100000000,
1111111100001001,
100110011,
1111111110110000,
101100110,
1001011000,
1010111111,
1001101,
101111110,
1111111000000000,
1111111000010101,
1111111101010000,
101101101,
1111111110111111,
1111110101000000,
11011101,
1111110111100110,
10110001,
1111111100001111,
1111110000101010,
1010111110,
1111111101111100,
11011000,
1000010100,
1111111010010110,
100110011,
1111101011110100,
1001011,
1111110010010010,
1111111110100101,
1100101100,
11000100,
1111110010101010,
1111111101100000,
1111100101101000,
11100110,
1111100111110110,
1000001001,
1111111101011011,
101010,
1111101011110110,
110001,
1111111101111100,
1111111100101110,
1111111011100101,
1111111100100011,
1111111110010100,
1111110101100011,
100101010,
1111111101111101,
1111101110010101,
11100101,
1111110111000101,
1111111101000000,
1111101101100100,
101010111,
111001,
1111110111101001,
101001010,
100100,
1111101110111111,
110100001,
1101011010,
1011011111,
1000001000,
1111101100000100,
1111110110011110,
101110000,
101100101,
10000110110,
1111111101111000,
101001010,
1101100001,
1111111011010111,
10100111010,
1111111011011010,
1010100110,
111111,
1111110101110010,
1111110001110110,
11110101,
1011110101,
1111111111111011,
10000110,
1001011110,
101000010,
1111111010010010,
1111111111011100,
1111101001110000,
1111111111001001,
111000111,
10010101,
1001000010,
111111000,
1111101010010001,
1000011000,
11100,
10010101,
1111110101111110,
1011001001,
1111111011110010,
1111111101110110,
1111111111010001,
1111110000111000,
1111111100110010,
1111110011001001,
1111111101110100,
1111111000000000,
1111111100000100,
1111110100001010,
111101100,
1111111110011001,
1110111110,
111100001,
1111111010010000,
1011101111,
110000101,
1111110111111101,
11100100,
1111101111001101,
1111111100011110,
10011110111,
1110000110,
1110110,
10101110,
1111110110100100,
1111111000010000,
10010100111,
11110000,
1001010,
1001010,
1000101011,
1000111101,
1111110011001000,
1111101101011001,
1111110000011111,
1111111011010111,
1111111100110100,
1010011110,
100000011,
1000010,
1000111010,
1111110010111010,
1111110001001010,
1111101110100111,
1111111000111101,
1011110010,
1011101101,
1111110101001010,
1111111010100000,
1111111111000101,
1111111001001110,
11000111,
10000010,
111010,
1100010110,
101000,
1111111010101100,
110101101,
1111110101011011,
1111110100111111,
1111111011100100,
1000001110,
1111111111111000,
1111111110101100,
1111111110010111,
1000001101,
10111101,
10101110,
10011011111,
1111101100110010,
1111111001100100,
1111110011100101,
1111111000101011,
1111111101110111,
1111110111011000,
1111111110100001,
1100110,
101110110,
10100101100,
101000001,
110010000,
100000100,
1111111010010010,
1111111101101010,
,
1111111110010101,
1100011001,
110011101,
11010010,
10110101,
1101110,
1111111000100010,
10011011,
11100001,
1111110011011010,
11100,
101100001,
100100000,
1111110111011011,
1111101010110010,
1111111000011101,
1111111011001011,
1111111100011001,
1111110111010011,
11111010,
1111110100011000,
100101001,
1111111011011110,
110011100,
1111110101101011,
10000101000,
1010010,
100111011,
1111110101000011,
1111110110000110,
111010000,
1111111100100101,
1001010010,
111001000,
1111111010110001,
1001010010,
1111110100010111,
111100,
10011011,
11001100111,
1111111111010001,
1111111110000101,
1000011,
1001100000,
1101001011,
1111111100011101,
10010000111,
1000011000,
1111111000110010,
1111111101110110,
1111110011101100,
1000010011,
1111110110100001,
1111110010010000,
100000,
111001110,
1100001101,
10111001,
10001111,
1111101111101100,
1111111010001011,
10011,
1111111100001000,
1111111100100110,
101101,
1011011,
1111111001000101,
11001,
101011111,
1111110010111110,
1111111101011000,
100010111,
100011011,
1111110101100100,
100101010,
1111111001101011,
100111101,
1111111111111001,
1111110110000001,
1111110011100001,
1111011,
1110100111,
101111111,
1111111001010100,
1111111011011111,
1101101,
1101101,
1111111101110100,
101101101,
10110011,
1111111101000110,
1111110010011110,
1111111011111011,
1001101,
1111111110010111,
1111111011010100,
1111110101001011,
1001010010,
1111111100110010,
1111111010011111,
1111111000100100,
1111111011001001,
11001011,
1001100111,
100111,
1001000111,
10101001,
1111111101010101,
10000010000,
1111111100111110,
1111111111011001,
100,
11010010,
1000000010,
1111011110,
111100,
1111111010001111,
1111111110001100,
1111110111010011,
111100110,
1111111110010110,
1100111,
1000010011,
1111111100101100,
1111111001001001,
1111111000110001,
100010110,
1111110001110000,
1000011,
11010000,
1101001110,
101100011,
111110101,
1101000,
11011000,
1111110101100101,
1111111110,
111001110,
11010000,
1001111111,
1111111100010111,
1111111100100001,
1111111101101111,
111011001,
1111101110101001,
1111111100110101,
1111110100001100,
1111111110011100,
111011000,
1111111100100011,
110011,
11100111,
1111111010011101,
100001000,
1111111110111011,
1111110110011001,
1111101100011001,
10110010,
101101101,
1111111100110010,
1100010100,
1001010000,
1111110110110010,
1111111101000001,
1111101111110100,
1010010101,
1101101101,
1100110101,
1111111110001100,
11110010,
1111110110110100,
1111111101111010,
11000,
11111,
1000,
1111111011100111,
1111110000100111,
11001100,
1111111110000111,
1111110101101011,
111110101,
100100100,
1111111000001111,
1111111010011000,
1111110100001111,
1100001010,
1101010000,
1111111100010010,
10001011111,
111111,
100100101,
1111111110111011,
1111111101101101,
10101010101,
1111101111000010,
10000,
1111111101101011,
1111110100001110,
1111111000110001,
1111101111110100,
1111110011010111,
1111110110101110,
1111111100001011,
110011010,
10101000111,
1111111101111111,
1111110101001101,
1000000100,
10011101,
1111111101000010,
1111111000010100,
10001011,
1111110100111111,
1111111110110001,
10101101,
1111111100111111,
100010100,
101110001,
1101101100,
1111111101000001,
1111110,
111111,
1111110110100111,
1000011111,
1010,
1111111001000011,
100100,
1100011010,
1001111110,
111100111,
1111101101100000,
100101000,
11010000,
111110,
1111111111000010,
1111110010111011,
1111111101110110,
1111101101111100,
1100100100,
1100110001,
100100101,
1111110101101101,
1011010110,
1111111011001110,
1111101110110100,
1111111110000010,
1111111100101001,
1111110111110000,
1111111001101111,
10000011101,
101010011,
1111111101100011,
1111111110110101,
1111110100111010,
1001100111,
1111111011010001,
1100000,
1111111011000000,
1111111110101011,
1001000000,
11101110,
1111101011110111,
1001001011,
1001101010,
11000110,
1000000000,
110100011,
1111110111000010,
1111111010001101,
1111111111111100,
111000010,
101111100,
1101,
1111111001011000,
1111110111011100,
1111111011101011,
111111000,
1100010101,
100010,
1111111101010001,
11011110,
1111111101111110,
110110111,
1111110101001001,
1100000001,
1111111011100001,
10111011011,
1111110001111011,
11000,
1011010101,
11000110,
1111111101111101,
1111111000100011,
11101010,
1111110000110110,
111000000,
1001100100,
1001000000,
111101100,
1111101011101011,
1111111101000100,
1111111100101011,
1111111011100101,
1111111001010000,
100011111,
100111011,
1111111011011010,
1111110011110111,
1000111011,
1111110110110000,
1111111001101010,
10101,
11101000,
1111111000011111,
1111110000000011,
1111110100101000,
1111111110010100,
1111111100010011,
1111111011011000,
110011001,
11011011,
101011,
1111110011101000,
100101111,
10,
10011101100,
1111111011001111,
100101111,
1110110110,
1111110001110000,
1001110001,
100011,
1111110010100000,
1010011011,
1110100100,
10010010,
11110000,
1000000,
1111110001111000,
1010101001,
1111111011011110,
10011001100,
100011,
1111101100100000,
1011100111,
1111110110101111,
1111100110010111,
1111111000111111,
100000000,
1001110100,
1111101011110101,
1111111111010110,
1000111000,
1111110000111000,
1111111000011110,
1111111110011000,
10000000111,
1111111011101101,
1011110111,
10000100110,
1111111011000111,
1100000111,
1111111110010010,
1111111101010011,
111101110,
1111111000100110,
10100010101,
1111111000011111,
1000000100,
11100010,
10000001,
1111110101011000,
1111111110110000,
101111000,
1111111001001011,
101001010,
1111111101001001,
1111111010010001,
100111101,
1111111110100101,
1111110111001111,
1011011000,
1111110110110010,
1100010011,
11100,
10001100,
1000100010,
110001100,
1111111111010100,
1000111110,
1101011101,
1011101,
1111111000101011,
1111111100000100,
1111110111011011,
10000010,
100001110,
1111111101100100,
1111111100010001,
1100000,
11101101,
1111110011100010,
1111111011101110,
1111111010110010,
111110011,
10001,
1111111011110011,
1001110011,
1111110100011000,
1111111001001011,
11011100,
100110011,
100011101,
1011101101,
1111111110001110,
111101001,
1111110000001000,
1111111010101010,
1111111000000100,
1111110111000110,
1100010,
1111111010100111,
1000100111,
111000100,
1111111001000000,
1000010001,
1010011110,
111110010,
1101101011,
10010011110,
1100110100,
1111110111011110,
1011101100,
1111111110100010,
10011000,
11010000,
100100110,
1111110111101010,
1111111100101110,
111,
10001111110,
1111111011101011,
1001000,
1111111110111110,
1111111100001000,
1111111001101100,
1111111111001000,
1111110011100101,
1111101111011100,
1000000101,
1111111101011010,
1011110111,
1111111110110010,
1111110100101110,
1111110000101000,
11001101,
100101110,
1111110101011101,
1111111000000011,
1100000100,
101100101,
1111111111100010,
1111110010110111,
1010010,
11001110,
1111111100000110,
11000111,
1111110110010001,
1010001010,
1111101000010001,
1111111011000111,
1111111011110111,
111011,
1010111101,
1110010,
1111110111000100,
1111111101001111,
1010111100,
1110100011,
1101100,
1111111110110111,
1111111010110111,
1111101101111010,
1100100,
1111111100110100,
1111111011011100,
1111111110000110,
1010001010,
1000010,
1111110111111100,
1111111100000111,
1111111110011111,
1101000,
1111110011011110,
11001100,
10000111,
1111100111100110,
1110010010,
1111111000010101,
10011000110,
1111111000011111,
1111111001000010,
1111110001100110,
1111110011110111,
1111111100010010,
1111110101011001,
1111110110010011,
1111111011101110,
1111111101110110,
110010010,
1001111000,
1011111100,
1111101101,
10000011,
10011111001,
1111111111011001,
1111111011101110,
1111111011010010,
1111101110010100,
10000010001,
11011111,
111,
10010000010,
110011000,
1111110010100110,
1111111011010001,
1001111000,
1111111101010000,
101111010,
111100000,
1011100010,
1101010111,
11001011,
111001001,
1111111110100001,
1110001,
111001000,
1101000011,
10011100101,
1111110111000100,
1111111100101010,
11001000,
1111111000010001,
100011010,
1111110011000011,
1111110010100111,
1111110111000100,
100111101,
1111110011010100,
1111110011011101,
10100011000,
1111111101010001,
111001111,
1000011101,
1111111001111111,
1111111010011001,
110111000,
1111110110110000,
1111110111100111,
1010111001,
1000111001,
1111110101000101,
1111111101000101,
1111111010111110,
1001010011,
1101110,
10111001,
1000011101,
1111111010111001,
1001101110,
1111111100110101,
1111111100011000,
1111110111001100,
1000111,
10001010,
111001011,
110101,
1111111110010001,
1111111011000000,
11001001,
1111111000101110,
1001001100,
10010,
1010111001,
1111111101101010,
1000110110,
10110100,
10001000100,
1111111100000111,
10000100011,
1111110000000111,
110100,
100000110,
1111111100011101,
1101110001,
1111111001010101,
101110011,
101011,
110101,
111000111,
10000000111,
1111111111001000,
1111111010100101,
1001111000,
111100101,
110110100,
1111110101000001,
1111111011111100,
1111110101010101,
1111110000001101,
1111111111111011,
1111111010010011,
101100100,
1111111011001000,
10111000,
1111111011101111,
1111111100101101,
1011011010,
1111111010101111,
1111111110000101,
1111111001111110,
1111111111111100,
1000001100,
1110110000,
11101110,
1001001001,
100011011,
101010111,
100010101,
10000000,
10001111100,
1111111001100011,
11000000,
110100011,
10101100,
1111111001101111,
1111111010000111,
10001110111,
10011111011,
1111111100111101,
1101011110,
1111110111011101,
10101100,
10001101110,
1111111011100101,
1111100110011110,
1111111011000001,
111101111,
1111011010,
1111111010000100,
1111111111111010,
1001011011,
1111111110000011,
101101110,
10100110,
1111111111101010,
1111100011110100,
1111111000101100,
1111111101011110,
10101111,
1001101101,
110110,
1111111011011011,
1111111111000111,
1111110001000001,
10110001,
1111111011110010,
1111111101000111,
1111111110000011,
1111111110111010,
1111111010111011,
1111111100111011,
1111111000101001,
101101101,
1111111110010111,
1111111100111000,
1111111001011001,
10100011,
1111110001110110,
1111111100001001,
1111111010111101,
100011,
110100,
1011011,
101111000,
10000100,
100010101,
11101000,
1111111100001010,
10110110,
1001100011,
1111111100100110,
1011101101,
1111111001001001,
1111110111001001,
1101101101,
101101,
1111111001011011,
1111111011001110,
111001101,
1111111001101110,
1111111111011110,
11111,
1111110000001000,
1111111110100010,
10010110001,
1000100110,
1111111000000100,
1111111000101101,
1111111001101010,
1111110100111000,
110010100,
10111111,
1010010,
1000111011,
1001101111,
1111111011000111,
,
1111111100001101,
11101110,
110110001,
10100011101,
1111101111001110,
110100101,
1111111111110111,
1111101111100010,
1000101100,
101010,
1111111100111001,
1111111000101100,
1111101111110110,
1111101000111111,
10110110,
11111,
111010010,
1111111000100001,
1000000001,
1111111000001000,
1111111011111101,
1101110101,
101101101,
1111110010011000,
1111110100110101,
1101111001,
101101100,
1111111001001011,
1100100,
111011,
1111111010011101,
110001110,
1111110001011010,
101100100,
110101011,
1111111101000100,
1111111000110000,
100001001,
1111111110,
1111111011001100,
1111111100001111,
110001010,
1111111101000100,
100100100,
11011001000,
1111111010111001,
1011001,
101000001,
1010110001,
1111111011111000,
1010011,
1111111100011101,
101011111,
1000111110,
101110111,
1111101110000001,
1111111101010000,
1111110011001001,
111000011,
1111111101011101,
1111101111011100,
1111111010100010,
1111110011111001,
10111100,
1100,
1111110111001001,
1111110011110011,
110001101,
1111111110001001,
1111101101111010,
1111110001110110,
1111111011010010,
11001010,
11001101,
10110,
1111111001010000,
1001011001,
1111111101110111,
1111111011011011,
1111111001111111,
10001111100,
1111111011101000,
1111111001000010,
1111111010111011,
1111110000101011,
1111101000100100,
10011110101,
1100010,
1101010001,
1111110111011100,
10000,
1111111001110000,
1111110110111100,
1111111011010001,
1111111011111000,
1111111001011101,
11001001,
1111110010110110,
111011,
110001110,
10111010,
1100110000,
101011110,
101000110,
10000001110,
1010110110,
1111110000101010,
1010111,
1111111010000100,
1100110111,
1000000111,
11101110,
1010,
1111111111110011,
1111111101111011,
1111111001110000,
1111111110110010,
11000111101,
1111110111000111,
110011001,
1111110010000000,
11010010,
1011010101,
1111111011010010,
101011,
1000111010,
1111111011000010,
100101000,
1111111010110101,
1010001010,
1111110011101101,
1111111000001000,
1111111010000111,
1001111010,
110000,
1111110000111101,
1000001111,
1111111101011100,
1111111100010111,
1111111000010101,
1111111001010000,
100101000,
1111101110111110,
100111,
111101111,
1000100001,
1000110010,
11010101,
1111110000101010,
1111111111110111,
1111111000100010,
1111110110011001,
1110001000,
1111110011111110,
1111110011101011,
110101111,
1010000000,
1101011011,
101101010,
1100101111,
1111100101,
1111110111000110,
1111110011100110,
1111101101000111,
1111111111101101,
11110110,
1010100,
1111110101000010,
1101000,
11100011,
1111111101111000,
100110,
1111110111111011,
101010,
1101011110,
110101001,
1111111000111111,
1111111111001011,
1111111100001010,
110010111,
1111111100011101,
111111001,
1111110111010010,
1111111000101110,
1111111110000001,
1111110000111010,
1111111111100011,
101010110,
1111111101100010,
1000010011,
1111111000000001,
1111110011110001,
1011011100,
101000000,
1111111110111011,
100010101,
1111110110010110,
1111111101100110,
1010100,
1111100110010011,
1110000110,
1111111011110011,
1111111101101101,
1111111001010010,
1111111010011111,
10001100001,
1111110110110010,
100110001,
1111110010101100,
101011110,
11011001,
110001011,
1111101111000010,
1111111101010000,
1111111101100001,
1111111011101001,
1000111101,
11100111,
1111000000,
1001001,
1000011100,
11001011,
11111110,
1111110111011011,
1011010100,
1011011011,
1111100101001000,
1111111010000000,
1000010111,
110,
111101000,
1111111101110000,
10101010,
1111111110110011,
1000001,
1110010110,
111110101,
10011011001,
1011000101,
1111110111100010,
1111110011001111,
1010001110,
1111111100101011,
1111111101110100,
1111110000111101,
1001100,
1111111110111000,
1111111001010100,
1111110000001110,
1111101111001101,
1111111100101011,
1001010111,
1111111011000101,
1111101000000001,
1111111100011011,
1111101110101000,
11000100010,
1111110100011000,
1111110001011101,
1100000101,
1111111000010101,
1111110100110100,
10001000,
1111111001100010,
1111111111000010,
1111110011101110,
100101011,
1110111,
1111110111100000,
1111100101,
100010100,
100100110,
1111110110110010,
1001101100,
1011101,
1111111101110110,
1111111001000110,
1111110101011111,
1111110100110001,
1111111111100101,
1111110111010101,
1100010111,
1111111001000101,
111110011,
1111111010000000,
1111110110011011,
1111101111000101,
1111111001111111,
1111011100111001,
10001001110,
1111111010011101,
1111110101001101,
1111111100100111,
1111101000111001,
1111111111011101,
11000110,
10100100000,
1111101111010111,
1010,
1111111110111100,
1000111100,
1111110101100101,
1001100111,
1111110111001000,
1111101111111110,
1111001,
111010,
1111110000110100,
1111110111010011,
1011111110,
1111111111101111,
1111110111100110,
1111110111011110,
1111111110001110,
1010110001,
1111110111110101,
1111110110000101,
1111111000111011,
1100110011,
1111001,
1111111110001100,
101100010,
1011101100,
11011011,
1000100111,
1111111000110010,
1000110010,
1110010101,
10101000000,
11001001111,
1111111110000100,
10100110,
1111110111010101,
1111111010011100,
1111110010101011,
111011010,
110010010,
10101111,
1100011010,
11000001101,
1111110100100111,
101000000,
1111111000010110,
1111111101101000,
110011010,
11001000,
111111100,
10011111,
11110001,
1111111111110011,
1111111011100100,
1111101111001001,
10110000,
10011100001,
10011001,
1111111001010000,
1111111011101110,
100100,
1111101010011011,
1011111101,
111001,
1100111001,
1111111110111101,
1000000110,
1010011010,
1000001101,
1111110011101101,
110110111,
100001011,
10011001010,
1111110101011011,
10000000,
1111110001111011,
1000000010,
1111111100001000,
1100101,
101101111,
100001100,
1111110101100101,
1111101111011010,
1111101,
1111111001001011,
1111111101010111,
1111110111001100,
1111110111101101,
1111111,
1111110010010110,
1111111101011110,
1111111101111000,
1111111011110111,
10010010111,
1011010000,
1111111001100000,
10010110000,
1111101101010000,
1111111110000110,
1111111100011010,
1100100000,
1010000000,
100011100,
1111111001011100,
1111111101110010,
101011011,
101110001,
1101001010,
1001010000,
1110111,
1111111100010000,
11100100,
100011101,
1111111110011110,
1111111011001100,
1111110101101110,
1011110,
110101110,
111010111,
10100011100,
1111111101011110,
1111101000011000,
100110101,
1101010010,
1111111111001000,
1111001,
1111111101011111,
1111101110101111,
1111111011011011,
1100010,
1011001001,
1111111100100000,
1111111101110111,
1111111000011011,
1111111111111101,
10000011011,
1111111100010111,
1111110110100011,
1111101100010101,
101100011,
1111110000111010,
1111111000011101,
101111000,
10000101100,
10000010100,
111111100,
11010111,
100011110,
1101101100,
1000010011,
1000000,
1111111101011111,
1111111101010110,
1111111010100110,
110110001,
1010100011,
11110100,
1111111001101111,
1111111111110000,
1111110011000101,
1111101100100101,
1111111111010111,
1001001,
11100011,
11000101011,
100110010,
1111110011101111,
11100111,
1111111010100100,
1111111010001010,
100101010,
1111111011110000,
1111110111111010,
110001000,
1111111001001010,
1100100110,
1001001101,
1111111101000100,
1111111110010110,
1111111111100100,
1110011100,
1111101,
1111111010100111,
1111111111000100,
1111111000101110,
1111010100,
10000110111,
1000011001,
111110000,
11001001,
1111111110100011,
1111111100101010,
1101110,
1111111111101100,
1111111100000011,
1111111,
1111111011110101,
1111111101101010,
1111110001000001,
100011100,
1111111111110000,
1111111101000000,
11001001,
101111110,
111010100,
1111111100010001,
1101111,
1111110110000110,
1111110111000010,
1111110101101000,
1111110111011001,
1100100,
1111111000001000,
1000110001,
1110011100,
1111100100,
1110,
1111111010001101,
1111111000101100,
10101101110,
10010110,
100001110,
1111111001111001,
1100000010,
1100001,
1111110101110000,
1111111111000111,
10110000,
1111110000001010,
1111110111010110,
1111111010011011,
110101111,
100011111,
100110111,
1100101111,
1111111100001001,
1111111110101100,
1111111111110110,
1111111010100011,
101010001,
1111111100110000,
1111110110010100,
1111111111111110,
1111111010011000,
1111100101,
1111110010111010,
10001110,
1111101110001010,
101001101,
1111111001010110,
1111111010011110,
10010011,
1111111001100110,
10100011,
1111111010110111,
111110000,
1111110000010010,
1111110110111110,
1111111101101110,
1111110111100001,
1111111100101100,
1111110100000010,
1111110111101111,
1111111111110001,
110110001,
1111111100010001,
101001100,
1111111111001001,
1111110001010010,
1111111011011011,
10001101000,
1111111111101110,
1111111100100000,
110110,
1111111011111110,
1111111100110101,
1001001100,
1111111011000001,
1111111100001100,
100100010,
11100111,
1010010011,
1111110010101110,
1111111110110011,
100100110,
110100011,
101001110,
1010100100,
1001001011,
1111110100001000,
10000111000,
10000011,
1111111001011010,
10111100,
101011000,
1111111110101011,
1100000010,
1111111010001101,
110111,
1111111100110111,
111011101,
1011000100,
1010000100,
1111111001111101,
100110,
1111110110001111,
1111111111110001,
1111111111111001,
1111111000010111,
1111111101110000,
110101100,
1010100110,
1111101110111110,
101100000,
1111110000000000,
1111111100011011,
1110001001,
1111111011011100,
10111010110,
1100000110,
1111111010110000,
1111110111101000,
1110110110,
1011111,
1101011,
1111110011011111,
1000111111,
1111110101110101,
1111111001010110,
11011110,
100011001,
1111110011001010,
1111111101000010,
1111111001000011,
1000011101,
1111110100010100,
1111111100100100,
1111111001110101,
110001,
100011000,
101000000,
1111111001,
1100010,
1011001110,
1111110011110110,
10010010,
1111111010111101,
1111111100011000,
1111111111000010,
101101111,
1010100111,
100100001,
11010111,
100001001,
1000,
1111111011111110,
1111111100110011,
1111000000,
1111111000110110,
1111111100111100,
10111101111,
11001111,
10101011,
10010011110,
100110011,
11010010,
1001010,
1111110010011001,
1111110100010011,
10100000,
1111111100010000,
1111110101110100,
11101100,
10000011,
110011,
1111111111110100,
101010000,
100111111,
101000101,
101001100,
1111110110110100,
1111111100010010,
1011101010,
1111111000111011,
1111111011000011,
11111001,
1011000,
1111110101001011,
1111111000111011,
101110000,
100101101,
1110001000,
1111,
10001111011,
1111101011111010,
1111111101010011,
1111111110001110,
1111111111010010,
1111111010011011,
1000100110,
1111110110110111,
1111111111011001,
1111111100011011,
10001000,
1111110111100001,
1111110111110100,
111010,
1111111100011010,
1011101100,
1001000,
1111111001110101,
1111111101000111,
10110000000,
1111111101110101,
1111111101010111,
1011101100,
10011011,
110001,
1111111010101111,
1101100000,
1111100111110011,
1111101111010110,
1111111101001010,
110111110,
10010001000,
1111111101100000,
1111111000010001,
1111111010101000,
1000011110,
10000001100,
1111111100110100,
1100,
1100000010,
1011010111,
1000010111,
101111110,
1001011100,
1111111011011011,
1010,
1111111110100101,
11110011,
1111111001010111,
1111110010011100,
1111110010101000,
110110011,
1010110011,
1111111101010000,
1111111000000011,
101110000,
1001000011,
1111100011001101,
1010101100,
1111110110111011,
111101110,
1010011101,
1111110011110101,
1111110011110110,
1111111110011100,
1111111010110101,
100001001,
111010101,
1111111101100101,
10000001110,
1111101001111001,
1111111000001010,
1111110110011111,
1111111100001101,
1111111101101011,
1111111110101101,
100011010,
1110001000,
1111111111110100,
1111110110010001,
1111111000111001,
111111000,
1100111111,
1111111101001111,
110001011,
1111111101,
1111110101100101,
1111110000,
1001011100,
1111111111100000,
1010000000,
1111110001111001,
1111111011111000,
100101110,
1010000010,
1111111101011101,
1000101110,
1111111001101010,
1111110010010110,
11010111,
11000001,
1111110111011001,
110100011,
1001001,
1111111100110100,
1111110111110101,
1111111001101001,
1111111010011000,
10000001100,
1111110100001101,
1111111011000110,
1011100111,
1111101111001110,
111000,
10000111,
10111000,
110,
100000101,
100001110,
1001111100,
1000001110,
1111111001000111,
1111111001110111,
1111111100010111,
1111111011110101,
1111110000110010,
101111,
10001111,
11001,
1111111000011110,
1111111110011011,
1111111011110011,
1011001110,
1111111110110111,
1111111101100001,
1111111000010001,
1111111101001110,
1111101110011000,
1100000100,
10000001000,
1111111100100010,
1111111100100010,
10110110,
11011011,
1111111101011001,
1111111111000110,
1111111010111001,
101110101,
1111111110111110,
1111111100101101,
1101100000,
1111111100111110,
100100000,
1111111110100010,
11011100,
1111111111100111,
1011111110,
110010110,
110110110,
11101,
1111110100101101,
1111110111010011,
1111110100100111,
1111110110100111,
1111111111101100,
1100000010,
1111111110011101,
1111111011110000,
1111111110110000,
1001000111,
11001111,
1011110100,
10101000,
1111101111,
1111110011010001,
1111110110000100,
1111110101101100,
1001000001,
1010000110,
1111101111010100,
1000011010,
1111111110011000,
1111110001001011,
1111111111000110,
1111111011010110,
1111001101,
1010111101,
1110000001,
1111100000,
1111101110110100,
1111111100000101,
1110100000,
1111101000010011,
10100110,
1111111011110010,
1011010001,
10101011,
1111111010110101,
1111111100110010,
1111101111101010,
1010011010,
1011111101,
1100000110,
1111111001000111,
1001100111,
1110000001,
1000000110,
1111111101101101,
1111110101100000,
1001010100,
1111110111010001,
1111110111001010,
1111111111000001,
100010,
10010,
10000001000,
1111111110100001,
1111111111100101,
1111111011100011,
1111110101000101,
111001,
110101010,
1000001001,
1111111010111100,
11111111,
1100101,
11011,
1111111101001000,
1111110101000000,
100100001,
1111110010000000,
1111110100011001,
1111110110101111,
1111111110001110,
1111101110001000,
1111111011000110,
110101111,
1111111000001111,
1111111111110111,
1111111110010101,
1111111000001000,
1111111111000011,
1111111010001010,
1111111011001100,
1010001110,
1010111101,
11001111,
1111111101100100,
100000111011,
1111111001111001,
1111111110010100,
1111101011000010,
1011010011,
1111111101100110,
100000100,
1111111110010001,
1111110100111110,
1111111101011000,
1111110100111100,
1111111100111001,
1111111110011011,
1111111111110110,
1111110001000001,
1111111001110110,
1001100110,
1101100,
1111111000001000,
1111111011010001,
1111111000000111,
11101000,
101101011,
1111111111100111,
1010110111,
1111111010000010,
10000011001,
11100,
1110100,
110110,
1111111011111010,
1010110000,
1111111110011001,
,
1111101101010101,
1111110010011111,
1111111101001110,
1111111100010101,
1111111011101110,
1111110101011100,
111000,
110000010,
1011110111,
1111111110001011,
11101,
1011,
1111111111011011,
1111111011111101,
1111111001111011,
1101000101,
1010101000,
1111111001111001,
101110010,
1111110000000100,
1111111011101111,
10001110,
10100101001,
1111111001101111,
1111111110100001,
1,
1111111110100100,
1111111001110010,
1111111111011010,
110011111,
1111111001010100,
10101010011,
1011111,
1101011,
101110101,
1000110111,
101100111,
11010101,
1111110001010100,
1111011101,
1111011,
1111111100111000,
1111110100101110,
101001110,
1101110000,
1010110,
1111111111110100,
10100100,
11000101,
1111110000110110,
1111111000110100,
1111110111110111,
111000110,
111000011,
11100100,
1000101101,
1111111010100010,
101000100,
1111111111001001,
1110010001,
1011100101,
11111,
1011101001,
1111111001011000,
,
1010101,
1111111110100111,
1111111110001010,
10010001010,
1101010001,
1111111111100100,
1111110111101001,
1111101001010101,
1111111100101011,
1111111110011101,
1111111000110010,
1111111100101000,
1010001100,
1111110111111100,
1111101011001101,
1111110110100101,
1111111000011111,
101110010,
101100100,
1111111010100111,
10010000,
1111111101111110,
1000101011,
100000101,
1100000010,
1111111001001010,
1110000000,
1111110110111000,
1001100101,
1111111010011000,
1001001010,
11100010,
1000111110,
1010110,
10001110001,
1010101,
110111100,
1100101010,
1111111011000111,
100100010,
1111111111101001,
1111111110000101,
1000100000,
11010101111,
1011011101,
111101110,
1111110010000011,
101000111,
1111111101011111,
1111110110110010,
1000001100,
10101111,
1111111000000011,
1111111010111100,
1101011010,
10111011,
1111111000011100,
1111111001001010,
100111001,
101111,
1101110,
110110100,
1111111001100110,
1111110111111101,
1100101111,
101000101,
10011001111,
1111111000100011,
1111111111101101,
1111110111011110,
100111110,
1111110111011111,
1110000001,
1111111100111000,
1111110111011011,
1111110110001001,
1111111011110010,
101101010,
100100011,
1111111010110111,
1111111011111011,
10010100,
100001010,
1011111,
1111111111101110,
1111111000111011,
1011000001,
1111111111101001,
1111111100000100,
1100100001,
11000110,
1111111000100111,
1001110000,
10010111,
1111111011000011,
1111111100101101,
10010100,
10110010,
1111101110011000,
1111111010010111,
1011000101,
1111111000010000,
1111110000111010,
100010100011,
1111101011001111,
1111111001000100,
11111010,
100010,
11011101,
1111110110000101,
1010010001,
1111111100011001,
1101010000,
1001101010,
10010011001,
1001011010,
10100000000,
111011001,
1111101111111110,
11011011,
1111111010101011,
1111111100111001,
101010000,
1000000111,
10111001,
10000100110,
1111111101010111,
1000000100,
100000101,
10011011,
110000101,
10111110,
1111110101011001,
1111101100000000,
1111111001101101,
1101111111,
100001010,
1111110100000110,
1111111000100000,
11100011,
1001011,
111011001,
1101000001,
1111111100101010,
1111101110111010,
11111100,
1111111001111110,
1111101010010011,
1111101110100111,
1111110000111101,
10101010100,
111110101,
1011001101,
1111000001,
1100110111,
1111010,
1010001111,
1111101111101111,
1111100100,
1111111011001110,
1111111100010000,
1111111011000000,
100010100,
1111111000110011,
1111110000000010,
10001100,
1111110111101111,
10001101010,
1000,
1111111011000000,
1111110101100011,
1110001010,
10000101110,
10001001,
1111111001010001,
1111110111011000,
1111111000101110,
1111111010011110,
1111110111101100,
1010011001,
111011100,
1111111011010110,
1111111001000111,
110010011,
1111111111101101,
1000101110,
1100100111,
111011001,
1111111101001000,
1111110111001111,
111011,
1111111110010110,
1111111000111010,
1111111101101111,
1011011,
1111111010000101,
1100000111,
11110101,
11111100,
1110111,
1111110101010011,
1111111000011001,
1111111011011111,
1111111100001101,
110001,
1111110110111011,
10000001101,
1111110111110011,
1111111100110010,
1101011,
1111110100111110,
1111110011101101,
1111111101000011,
1101011001,
1010001110,
101011100,
1100010010,
10110000,
1111111011010011,
1111111011010110,
1111111100101010,
110001100,
11011111,
1111110011100011,
1111110101001111,
1100001011,
111000010,
101110011,
1111111101010000,
11111011,
1111111111001011,
101101101,
1010001001,
1111111110001011,
1000011100,
100011111,
11010110,
1111111101111101,
1111101001110011,
110110,
1010011,
10111110,
1111110110000000,
100101,
1111111001010100,
110010000,
1010,
1111111000000001,
110010111,
1111111111100111,
1111111101100100,
110100011,
1111110110000100,
1111110111000110,
110011,
1111111111101010,
1001000100,
1111111111100110,
10001110111,
1111110010111111,
1111111100100010,
10000011000,
1111111010101100,
1111110100010000,
1010101,
1011000,
1111111100111011,
1110010000,
1110011101,
101010000,
10011101,
1111111010101011,
10000101011,
1111111001111110,
1111110100111001,
101000101,
1111111011010000,
1101110,
1010000000,
1111110011001111,
100001001,
110100,
1000010000,
110111,
1100100000,
1111101110110101,
1111110000001100,
110000011,
101100011,
100101010,
10010110,
1111111101010111,
1111100100,
10000010001,
1101011,
1111111111110111,
110010111,
1111110100010011,
1111111010101010,
1111110111100011,
10011101111,
1111110010110000,
1111111110100010,
1111111110110100,
110101000,
10110100010,
110111110,
1111111011101010,
1111110000100111,
1111111111101011,
101011110,
1111110011100110,
1010001101,
1111110011110010,
11010001100,
1001000101,
1000101110,
1111110111110111,
1001000000,
1111110000011101,
110000010,
1111110001111000,
1000011100,
101001101,
1100010000,
1110100,
1111110101010100,
1111111011010011,
110000100,
110011001,
1111110110110011,
1010111,
1111111110011010,
10001111010,
1111110100100101,
1010011,
1111110001101101,
11100100,
1011000101,
1001000,
101000010,
1111110110010100,
1010101100,
1111110110101001,
1001001000,
101010110,
1000111100,
1101101011,
101010010,
1110001,
1111111010011011,
111000011,
10011010000,
1010110011,
1000100100,
100010111,
1111100100,
1100010,
1111110100010100,
1111111001001010,
111011101,
1111110111000001,
10111110,
1111111110100101,
1111110111110010,
1111111111011111,
11101,
1111111010110001,
1111110011101111,
1111110101100101,
1111111101111100,
1111111110100100,
1111111111100111,
1100,
11110010,
101010110,
10111010,
1111111001011111,
10011100,
1001001111,
1111111110010101,
100100101,
1000110001,
1110001111,
101110000,
101011110,
1010100000,
1001100101,
10100111,
111100001,
1111110010000100,
1111111110001111,
1111111100111011,
1111111011000010,
1111111111100010,
1111110011010000,
1111111110100100,
1111110001101100,
11010111,
11101001,
11110101,
11100001,
1111111111101101,
1111110000000001,
1111100101010000,
1011011100,
111101010,
111001011,
1111110101000001,
100110111,
1111110010010100,
1111110111111100,
101100,
11010101,
1111110110011100,
1111111101010100,
1011010000,
10100010000,
1111111,
1001000011,
101010000,
1001111110,
110111000,
1000001111,
1111110110010010,
1111110110011110,
1111111100110101,
1111110001011010,
1111101000001101,
10000010,
1111111000010110,
110100111,
1111111101000001,
1111111011000000,
1111110110011010,
111010101,
11100001,
1111110010110000,
1111111110111101,
1111110001001010,
1111111,
1011100110,
1111110101001111,
1111111110100111,
1111111100110100,
10011011011,
1010111101,
1111110100000001,
,
1011111010,
10010,
10100101,
11010110,
1001111,
100001101,
10101101010,
1111111000001111,
1111110001001010,
1111111100001010,
110001110,
1111111010101011,
1111111010011100,
111011101,
1111111111110111,
100110011,
10100101,
1000100100,
1010111010,
1111111010100000,
1111111001111011,
1111110110110111,
1001001100,
11110,
1001111011,
1111111011001101,
1010010,
1010110111,
100001100,
1011001111,
101001111,
1001110010,
10110001,
11111,
1111100,
1101011100,
1011100000,
10001101101,
1111111111010110,
100011110,
1111110101110010,
1111110100011010,
1110101101,
11100011,
10001110101,
1001101001,
1111111000001100,
1111111110001110,
100100,
1111101100,
1111111101011111,
1101000011,
1111110100001101,
1111110001111000,
1101010100,
1111111100101001,
1100011,
1111111111011010,
1111111111001101,
11,
10011010,
1100101000,
100100010,
1101110100,
1111111001101110,
1111110101100000,
1111111010001101,
1111111110000001,
101101,
1110011100,
11110100,
1000011111,
1111111111110001,
101011011,
1111110,
1010010101,
1111010,
1111110100011111,
11010100010,
1111111101101100,
1111111010001100,
1011111110,
1111110100111010,
1110111,
1111111011111000,
1111110000100000,
1111111100100100,
1111111101111111,
1111111101101010,
110001001,
1010111010,
1111111100001101,
1011001,
1111111101000001,
1110011,
1010111110,
1111110111010100,
10100000100,
1111111010001111,
1001001011,
1111110011100110,
1111111010011011,
1111111001100100,
1110001000,
1010101011,
1111111111011110,
110011100,
1111110100000011,
1111111010100110,
11010000,
1111111101110111,
1111111010111011,
1111101111101001,
1111111011110110,
10101010,
10,
1111111111000101,
101111101,
1100101,
1111111011011001,
1111111111000100,
1000000001,
1111111010101010,
1111111000101010,
1111111101110111,
1101011110,
1111110110001001,
110010100,
1011100000,
111011010,
100001101,
10011110001,
100110001,
110001000,
111111011,
1001011,
1111110111101101,
11110100,
1111110011010101,
111010,
11,
100111101,
100110010,
1111111000001111,
1111111000011010,
1111111101101011,
1111100010,
1010011000,
111000010,
101011010,
1111111100010010,
10101001,
1111110101010001,
1100000,
1111111010101011,
10011010,
1001110111,
1001110011,
1101110001,
1111110101101101,
100001101,
110000111,
110101100,
1111111011111100,
101011010,
10111000011,
110100100,
111110011,
1111110101010010,
11,
10110000,
1111110110010001,
10100101110,
1111110011001110,
1111110011000111,
101000000,
1001000110,
1111111011110101,
1111111100011101,
1111111001001010,
1011101101,
1111110101110000,
100101100,
1111101110000001,
1111110111111111,
1111111110011010,
110010101,
1111111001101010,
111000111,
1010100011,
1110110110,
1111111111111000,
110000100,
1111101111000100,
1110001,
110001111,
11100000100,
1100100011,
1101010011,
1111110011101100,
1111111100100011,
11111100,
111100110,
1011000100,
1110010,
10011000111,
1111111011101110,
1010001010,
1111111110000110,
1111111010110100,
1111111111000101,
1111111111010000,
1111101101000001,
1000000110,
1111111000100110,
10111,
100101100,
1111101100100111,
1111110010010100,
1111110010011110,
1111110110101110,
1001100,
1111111111100000,
1111111111111100,
1111111111010001,
1111111011001001,
1111111001101011,
1111111001101101,
1111110110111010,
10100000,
11010000,
100010110,
1111111010011110,
1101110101,
1111111110001111,
1010001000,
1001101,
1111111010001001,
1111110101100000,
1000111110,
1111111010000111,
1111111000010110,
1101001000,
110001100,
111010010,
100111111,
1111111011000011,
111011000,
1101110,
10001011101,
1111111001010111,
1000110000,
1111110100,
1111111111011000,
1101011101,
1111101110101111,
1111110101000111,
1111110011110010,
1111111101010010,
1111110000111100,
111010101,
1100001000,
11110110,
110011110,
1001000000,
1110100111,
101000010,
1111110100011110,
11110111,
1011011010,
10001111,
1111111111011101,
1111111100110111,
11010000,
1111111100001001,
1111111110110000,
1011010001,
1111111011111000,
10110110,
1111111111100101,
10001110,
1000,
101011100,
101001001,
10111100,
1011110,
1111111100100011,
1110111001,
111010011,
100101011,
1111101011101110,
1111111111001000,
1110100,
1111110101100011,
1111111001000111,
1011001010,
100101101,
10101101,
1111110110100110,
1111111011100100,
111111111,
1111111111101011,
1110111100,
1111111111000011,
1111110111001010,
1111101110010011,
1011111001,
1111111011100011,
101000101,
101110110,
1111110110011001,
1111111110011010,
111010101,
1011010010,
1111101101111111,
10101111,
110011101,
1111111110110011,
1111111001100101,
1101110001,
11101111,
1111111010010111,
11000000,
100000010,
111010001,
100111,
1110000,
1111111011100101,
10001011011,
1001111,
1111110100111010,
1111110100110000,
100100001,
1111111010001111,
100100101,
1111111100100101,
1111110000110010,
1111111111101101,
1010010,
10011010,
1111111100111010,
1111110110101111,
1111111100010011,
1111110001100010,
1000010,
1111101000001001,
1111111101000010,
1111110001111110,
1111110111111000,
1111111010010001,
1111111010110001,
1111101111000111,
1111111011000100,
111110111,
1111111110001110,
1111111101111001,
1101001100,
1111110011111100,
1111111011101000,
100011100,
10110001,
1111111001111001,
11011010,
1111111111111101,
1100010101,
1111011111,
111000100,
1111110110001011,
11000110,
1111111110110011,
1111111000100110,
1010101,
11111000,
1111110010011011,
1111111100101000,
1111111111111010,
1100010011,
11100,
1111111100010100,
1001101111,
1111111010110111,
10100101,
1111101111,
101001000,
1111111010010011,
1010011,
1111111101000011,
1111111101001001,
1111111110000010,
1111110000111010,
1001011001,
1111111001110011,
1111111011101110,
101000011,
1001010110,
1111111000111010,
1111110110010110,
1001111,
101110,
1111111010000001,
1111110110110000,
1111111101001110,
1111110001000101,
1000010,
1111110011111001,
110101100,
1111111000100010,
10010,
1111101110000010,
1010000101,
1001010000,
1111111011111001,
1101111110,
1111111011001110,
1111111100110000,
1111101111010000,
1111110111101010,
10100110,
1111111100111010,
1110101,
100010011,
10010111101,
1111111010111001,
101001000,
1111111100110011,
1111101100111001,
110100010,
1111111110110101,
10011110,
1111111001111010,
10001111111,
1111110001111000,
1111110111111010,
100000,
111101011,
1111111101011101,
1111111001010001,
1111111010100100,
1111110111010110,
1111111100101001,
1111111001000001,
1111111110111000,
1111110010111001,
1001,
1111111001110010,
1111011111,
1000011010,
1111111110010110,
1100100,
1111111100110101,
1010100101,
1111111110100010,
1101111110,
101000100,
1111110111010011,
1111111100100110,
1111111100011010,
1111111111111111,
1111111110000010,
1111111001000101,
1111111000100000,
1001111000,
1111111000111101,
1111110111111000,
100010010,
11110111,
1001001111,
1111111010011111,
1111110010011110,
11110011,
11101000,
1110111,
1111110111000001,
1010110101,
1111110100,
1111110111010111,
1111110100101001,
1111110011101000,
10000011,
1111111111001100,
1111111001000110,
1111101011111110,
100000001,
1111101110100101,
111010010,
1111111110101001,
101000111,
1111111011111011,
11001000001,
101010110,
10110001,
1111000110,
1111111010011010,
1111110011111001,
101110,
1001100,
1111111101000101,
1111110111011010,
1111111111101101,
1111111010100010,
1101000000,
111010100,
10001001,
11001101,
1111111010000111,
10110100,
1101010001,
1111110111111010,
100010100,
1111010101,
1111111010001000,
1111111100001011,
101001101,
111000100,
1111110100001010,
100110101,
1111111101101101,
1111110101011101,
1111101101101110,
1010111,
100001001,
1110100,
1111111,
110000100,
1111111101011101,
1101011,
1111111111100010,
1111110111001010,
1111110111110101,
1111111010010100,
1111110011001011,
101111111,
1111110000011110,
1111111000011001,
11001010,
1111111000000011,
1111111101011100,
1100110001,
1111110100001101,
1111110110111100,
10001100100,
1100010010,
1111111110111110,
1111111101101000,
1111110111000100,
1111110010100111,
1111111001110111,
1111111111101110,
1000001001,
1111111110101110,
1111111011111111,
1011110100,
1111111011100100,
100110111,
1110100011,
1111111010100010,
1111111101001011,
1111111111010001,
1000001000,
1010101,
1111111000101011,
1111111011110110,
100110110,
1001000111,
1111111100100101,
1111110010010110,
1100011,
10111101,
1100101001,
10111110,
1111111111010101,
1111110111100001,
1111101000000101,
1111101110110101,
1011001,
1111111101000110,
1111111000001000,
1101000010,
100100100,
1101011110,
1111110001001011,
1111111001101100,
1111111011011000,
1000110101,
1111111100101000,
110110111,
1111110101000001,
1111110011001111,
111100011,
1111111011001010,
1111111000101111,
1000110,
1111111000101110,
1111110110101011,
10001101,
11111111,
1010100111,
1111110111100011,
1111010100,
1111111100010000,
110010000,
101110001,
1111111010101110,
1111111011011110,
111011,
10110101100,
1111111010001110,
10110011,
10010001000,
1100101001,
1111111110101001,
1000011011,
1111110001100011,
1111111110100111,
10011011,
1111111001111001,
101110101,
1111110101001001,
1000001011,
1111101011101110,
1111111110101110,
10001001000,
1111111100101100,
1111111101110110,
1110101101,
1111110111100000,
1111111000100111,
1111111101010010,
1111111100110100,
1111100100,
1111111010011001,
1111111011011010,
1111101110101011,
1111111110011101,
1111110110100111,
1111111000001101,
1111111111000010,
1111111100100110,
1010111,
1111110101110010,
1111101100101111,
1011000110,
1111111110100111,
1111111100001100,
1011101,
11011011,
1100011111,
10000,
1111111001110001,
1001001001,
11000000110,
1111110011100100,
1100010010,
1111111011100001,
110101000,
1010110000,
11010101,
11100011011,
1001011011,
10111,
10001001111,
1111111010010110,
1100010101,
1111111110101111,
10100100011,
100110110,
1111111011101110,
1010111,
1111110111000011,
1111111111001101,
1010101101,
1111111110111010,
1111111010011111,
111000010,
111101,
101001100,
1111110100110100,
1111111011101000,
1111111010000111,
1111110000011110,
1111111001010000,
1000101110,
1111111110000110,
11101101,
1011011001,
1101001000,
1101100110,
1111111101110001,
1111111111110110,
1111110110111100,
1111110110110001,
1111110010100001,
110000110,
1010101011,
100111000,
1111110101001000,
1111101111111100,
100011110,
1111110100010101,
1111110110100010,
1100001101,
1001011101,
1111111011110110,
1111111001011101,
1001001101,
1111110111110011,
1111110101110010,
1011010,
10011001011,
1111110000011000,
,
100010011,
1111110100010010,
100100101,
1111110111001001,
1111110100001000,
1011000010,
1000000001,
1111111000101110,
1111101101010101,
1111110110101111,
11000000,
10010010001,
1110101110,
110011000,
10001001,
1111111101000100,
11000011,
1110010101,
1011000010,
1111110011000001,
1101111011,
1111111011110101,
110110111,
1111010111,
1111111000101001,
1111111110011010,
1111111111100100,
1111111100111000,
111001101,
10100000,
1111110111111100,
1111100,
1111111111110101,
1111101111100110,
1011100010,
1111111110010110,
1011010101,
1111111111001001,
1111110101011001,
1111111110011001,
100110110,
1111111000111100,
11100001,
101000001,
1011100110,
1111111000101011,
1111111110111001,
100100000,
1000100100,
1111111101101011,
1001100100,
110110,
1111000100,
1111111001010111,
11000000,
1100111101,
10000100100,
1110111010,
1111111110001100,
110011,
1111111110101110,
100011011,
111101111,
10010001101,
1111111100100010,
10110110,
1111111011001111,
1111111110100011,
11011110,
10001,
1001001010,
1111110111101001,
1001001111,
1111111110001111,
1001101,
1111110001101001,
1111110101110000,
110000011,
1101110101,
1111111001101111,
1111111110010000,
11010011000,
1111110101101001,
1111101101011101,
1011011010,
1101000110,
1000010011,
10100011,
1111111101000111,
1111111100010001,
1011111111,
100000001,
110100001,
1001101001,
1111110111110101,
1111110001101111,
1111000010,
1111111010111111,
1111111010000110,
1000000100,
1111110111001010,
1000,
1111110111011000,
1111111100011111,
11111111,
1111111011100110,
1111111010100010,
1111111110001111,
1001001000,
1111110111111001,
101101010,
1111101111011100,
1111111011101111,
100101000,
1111110101011000,
1111111110101111,
1111111101111111,
1111110010000110,
100100010,
1111111110010011,
100001101,
110111111,
1111111100011000,
10001011110,
1100110011,
1010100000,
10000010,
1111111101011000,
110011110,
111111101,
100111011,
10001111,
110101011,
1010100001,
1110100101,
11110101,
1111110100111011,
1111110100010000,
1001011101,
1111111100000010,
1111111100110111,
1111111100110100,
1111110001011010,
11111011,
1111101101100100,
1101011011,
1111111001011001,
1111000,
110111010,
11011001,
1001000100,
1001000,
11111101,
10010110000,
1111111110111000,
1111101111101110,
1000100101,
1111111010111000,
1111110111000100,
10011110,
1111110001001100,
1100000111,
110,
1001110100,
1111111011111000,
1111101111001111,
1000110100,
110111100,
1001111100,
10001010,
1111101010100100,
10100011,
100100111,
1111111111111011,
111101110,
1111110111110110,
1111101101111101,
1111111111101000,
1111111000101100,
100101011,
1111110100010110,
110100101,
101110011,
1010100,
10101011,
1111111111111101,
1111111101101011,
10110011010,
1111110110111100,
1111111101000101,
100011000,
1111110101100001,
1111111000100011,
1111111111001001,
10100110,
1111111010110100,
110111011,
11101101100,
111001000,
1010110001,
1111110011010100,
110011010,
1111001100,
1111110101001100,
1111111101111001,
1111111000110101,
1111111101111000,
1111111100011111,
101100000,
11111110,
1111111011000000,
1111011,
111100010,
11100001,
1111111101001001,
1111111000011110,
1100000100,
10101010111,
1011010111,
1111111100100001,
1000011010,
1111111110111001,
1110001000,
1111111100100110,
11100011,
1111110000010110,
1001111100,
11011100,
10000111010,
1111110010001010,
1101,
1111111110001111,
1111110110101100,
1111111011111011,
1111110101110111,
100010,
1111110101110011,
11000001,
1001000010,
1111110011110111,
110001110,
1111111110010000,
10100100,
