1111111111110010
0000000111010101
1111111100110101
1111111100111001
1111111011101111
0000000011110101
0000001011011010
1111111101100110
0000000111000101
0000000101110000
1111111010111100
1111110101011011
0000000101110000
0000000111010001
1111111011001000
0000000101100111
0000000010101010
0000001010100011
0000000010000010
1111110110000110
1111111111101111
1111111111101001
0000000000100110
0000010101111100
1111111111101111
0000001100111011
0000001101010000
1111110100111000
1111110101011101
0000000011111111
0000000011101011
0000000011001101
1111111111101100
1111101110100010
1111111111000000
0000000001111010
1111111110000001
0000001100000010
1111111011110101
0000001101100100
0000000001000010
0000000010110101
1111111110010010
1111110000101101
1111110110111010
0000001101101111
0000001111111100
1111111100110100
1111110100111111
1111111101101101
1111110111100111
0000000001100111
0000010011001101
0000001100001101
0000000011001111
1111111100101011
0000000100011100
0000000111101011
1111110111010100
0000000111100011
1111111110111101
0000000011011101
1111111001100001
0000000010111111
1111111010010001
1111111111101100
1111111100100010
0000000001101101
1111111010100010
0000001111001101
1111111110011011
1111110000010001
0000001011110101
1111110111001000
0000000100011100
0000000000101001
1111111011001000
1111110010100010
0000000000010000
1111111011100000
0000001011010001
1111110111100101
1111111101101111
1111110110111010
0000000000000000
0000010101000010
1111110000011001
0000001001111000
0000000110010011
1111111010100110
0000000101001010
0000010001101110
0000010000011100
1111111101101100
1111111010011110
0000001110100010
1111111011010000
1111111010101110
0000000111111000
1111110110000000
1111101101000101
1111101010011010
0000001000000000
0000000011111011
1111111000010010
0000000000111010
1111111110111111
0000001111000110
0000000011111001
1111111110111101
0000000011000000
1111110111110010
1111110110010010
0000000111100110
0000000001100100
0000000101100010
1111111000001011
0000001000111011
1111110001110000
1111111011110001
0000000100010101
1111111011111011
1111110111000001
1111111001101000
1111111101111011
1111111001011010
0000000110000011
0000000000111110
1111111000001010
0000000110101011
1111111000010110
1111111001111011
0000000010100110
1111111001011100
0000001011001101
0000000111101111
1111110101001010
1111111011011111
1111111101110101
0000000100110101
0000011011100101
1111111000000011
0000000000010001
0000000011111111
0000001010111101
1111110101101110
0000000000110110
1111110101101000
1111111011111000
1111111001001001
0000001110101111
0000001000000011
0000000001011101
0000000001110010
0000000111111101
1111111110010010
0000000000010110
1111111111101110
0000000011101011
0000000000001100
0000000101110111
0000001001011010
1111101111111100
1111101101101111
0000001110010100
1111111101110010
0000000010110001
0000000000100100
1111111110111110
0000000011100101
1111110011110011
0000000101010100
0000000110000011
0000000010000011
1111110001101111
0000000111111010
0000001101110110
1111110111011101
1111110011100111
0000000111111011
0000011011000001
0000010111000001
0000000001000101
0000000011100110
1111111011110111
0000000011100001
1111111000101001
0000000110111111
1111110000110110
1111110110001111
1111110001011001
1111110101011010
1111110110100000
1111111100100100
0000000000111001
0000001010100110
0000000110100101
0000001000000100
0000010010111100
1111111100000010
1111111101101101
0000001011000101
1111111010001101
0000000001100011
0000000001000010
0000001000110110
1111111101001101
0000010010011101
1111110110010010
1111111000010101
0000001110100100
1111111010101101
0000001110010001
1111111101110011
1111110111010101
0000000101110110
0000000110101001
1111111110111101
0000001000001100
1111110011001010
0000000101000011
1111111101000100
0000001001011101
0000000110111011
0000000100101000
1111111000011010
0000001100100010
1111110101100001
1111110000011000
1111111100011111
0000001010001000
0000001001100010
1111111001001010
1111111011101110
0000000000110100
0000000100010001
0000010000001110
0000000001001000
0000000110111110
0000000111111000
1111101100100010
0000000100010010
1111111011110111
0000000100110010
1111111000100101
1111110010001010
0000000110011001
1111111010001101
0000001000000000
0000001101001010
0000000111010110
1111111111010011
0000000101010011
1111111100111110
0000000101010010
1111111010000111
1111110100100011
1111111001010111
1111110101101101
0000000110011001
0000001010100011
0000000011011001
0000000010110100
1111111111011001
1111110101110100
1111111000010110
0000001011010111
0000000011000101
0000000111001001
1111110001000011
0000001011100100
0000000001111110
0000000000010001
1111111001011001
1111111000100101
0000000101101110
0000000001101011
1111111101011110
0000000011000001
0000010110011100
1111101100011100
1111111111101001
1111110111010111
1111110011011100
1111110100000000
0000000001110001
0000000101001110
0000000000000001
1111110010111110
1111111100100100
1111110010101011
0000001001011011
1111110001001110
1111111100110010
1111111011011010
0000010011011111
0000000111111101
1111110011110100
0000010000001101
0000000101000000
0000000010011101
1111110110001101
1111111100001001
1111111110111111
0000001001101001
1111101110100111
0000000100010010
1111110101010101
0000001100111010
0000001110010001
0000000010001000
0000000000101000
0000000001011101
0000001001011111
1111110111011000
0000010011110010
1111101110000011
1111111111101000
0000001001000010
1111111100100101
1111111011100111
0000000011110011
1111101101001110
0000010011100011
1111111110001111
1111111000101001
1111110111111011
0000001001101001
1111111010001010
0000000100001000
0000000101011100
0000000111000100
0000001010001100
1111111101011101
0000000000101000
1111111101100111
0000001101001111
0000001111111010
1111111101100010
1111111100010011
0000010010110100
1111110101101000
0000000110000110
1111111100011011
0000001011000011
0000000110101101
1111111001111011
0000000101101001
1111111101010111
1111111000101110
0000001011111101
1111111010011110
1111110100001111
1111110010100100
0000001011011011
0000001001111101
1111110111000001
1111111001001110
1111101011001110
1111111100001001
1111110100000011
1111110001110011
0000000000110100
0000001010110010
0000000000000001
0000000111100011
1111111000100001
1111101111010101
1111110011000001
1111111000001110
0000001001100000
1111111001001000
1111111001001111
1111101110011010
1111111010101001
1111110111000010
0000000100010100
1111111110010101
1111111100110101
1111111011000000
1111101000111111
0000001000001111
1111110011010011
0000000000010111
0000000000000010
1111111000000101
1111110010010110
0000000010111111
1111111111000010
0000001001010111
0000000111001001
1111011101101100
0000000010111000
0000000010110101
1111111000110000
1111110001000011
0000001101101100
1111111111110010
0000010000000011
1111111010110010
1111111100110000
0000001011000110
1111110011100001
0000001101101111
1111110100001110
0000000000000011
0000000010111001
1111111101111101
0000000101110100
1111110011111011
1111101100011000
1111110011101110
1111111111101110
0000010001001111
0000001011101000
1111111110111011
1111110110011110
0000000011001101
1111111001011110
0000000000111010
0000000011110000
1111110010010100
0000000101110110
0000000001100011
0000010011100100
0000000001101000
0000001010011111
1111111101111111
1111110001001001
0000001011010010
1111111101010001
1111111110001101
1111111111011010
1111111001000001
0000000100101010
1111111010011100
1111111111111101
0000000010001110
1111111101000001
0000000010011011
1111111111111001
1111111111100101
1111110101001011
1111110101110101
0000000101110110
1111111100000000
0000000001011101
0000000010010000
1111111001100100
1111111111011101
0000000111111001
0000000110011000
1111101011101000
0000001001110010
0000001101110101
1111110110110000
1111111100001010
0000000000010010
1111111110111100
0000000100000011
1111111101001101
0000001101010100
0000000100001101
1111110100000100
0000001100111011
0000001011110110
1111111100111011
0000000000111100
0000001001011100
1111110101111111
1111111000100110
1111111100011001
0000000110011111
1111110000111011
0000001101111010
1111110100010000
1111110111110110
0000001000011001
1111110111010001
0000001101100100
0000000001101111
1111111000111011
0000000100011100
1111110011100100
0000000011111001
1111110011110010
0000001000001000
1111111101000001
0000000001100100
0000000001111011
0000001001010101
0000000011010111
0000010010000011
1111111011001000
1111110000101100
0000010011111101
0000001011101110
0000000000000110
0000000010001011
1111110001111110
1111110111101100
0000000000010000
1111111110111100
1111111101110111
1111111111100100
1111110101000101
1111111000110101
1111110101000111
1111111110100011
0000000010000111
1111110001100110
1111110101100000
1111110101101001
1111100101111111
0000001010011000
1111110001011111
0000001111000111
1111111101100001
0000000011011011
1111111110101001
1111110010110111
0000000010001001
0000000101110001
1111111010110010
1111111011101010
1111110111111100
0000001000010001
0000001011100000
1111111111111010
1111111010110010
0000000100110011
0000000101101010
1111111001001011
1111111011100011
1111110101100010
0000000101111110
1111111100010011
0000000000100110
1111111100101110
0000000011010100
1111111011100111
1111111110010010
1111111010101000
0000001110010101
1111111000100001
1111111000100100
1111110111110011
0000000001100011
1111110110110101
1111110110110101
1111110101101111
0000000101110001
0000001100111100
0000001001000110
0000000010100010
0000001000110100
0000000100011001
0000001011110000
0000000001010011
1111111010110111
1111111011001010
1111110111111010
1111110001111100
1111101000110011
0000000100001011
1111111100010011
1111111110000001
0000000010001001
0000000000011110
0000001100000110
0000000000100111
1111110101111100
1111111010001011
1111110001101100
1111110101100110
1111110001100100
0000000101110011
0000001111011101
1111110000111000
1111111011010101
1111111111001111
1111111011110101
1111111111001010
0000001000111000
1111111100101011
1111110110101011
0000001101010010
0000000001010011
1111110110010011
0000000001001010
0000001000111101
1111110000111110
0000001010000111
0000000100100111
0000000100110100
1111111100111111
0000000101100101
0000001101011010
1111111111000010
1111111101010000
0000000010110110
1111111111100001
1111111111011000
1111101111001001
0000000001101001
1111111101011000
0000000110010111
1111111011011110
0000001001111111
1111110111110100
1111111010011000
1111110110111100
0000001100111011
1111110011000011
1111111010000101
1111111110011010
0000001011110101
0000001101001001
0000000001000000
0000000001001010
0000000111010011
0000000011010101
0000000111001110
1111111010000011
1111110101100100
1111110100111101
0000001110010100
1111110010010010
0000001011000001
0000000001101100
1111111011101011
0000000111001111
0000000000000101
0000000000011001
0000001100101111
0000000011110101
1111111001000000
1111111010110111
1111111101110011
1111111111001111
1111111110111001
1111110111101000
1111110100111001
0000001110001100
0000000101100101
1111111001011011
0000001111111110
1111110010101000
0000000100001100
0000000000000110
0000001001110000
0000000001111100
0000001000010101
0000001110001001
0000001101000010
1111110110111000
0000001101111000
1111111110110001
1111111101001001
1111111101000101
0000001001011001
1111110110011101
1111110001011011
1111111000001100
0000000101111000
0000000100110001
0000010011001101
0000001000000110
1111111011001011
0000000011001010
1111111110001110
0000000100001001
1111111110110100
0000000011110000
0000000110110101
1111110111000010
1111110101100010
0000001010111011
1111111100100011
1111111011101111
1111110001110001
0000000111101010
1111111101111001
0000000001011000
0000001010111011
0000000101100100
0000000100010101
1111101110010111
0000001011010110
1111111010100010
0000001011111011
1111111111011101
0000000111010010
0000000010101000
1111111000010000
1111111111010001
0000000111001101
1111111010111111
1111111001010111
1111110110010011
0000000101000100
0000000100100111
0000000001001101
0000000011110011
1111110111100001
0000000110110101
0000000011100111
1111111100111100
0000000010010111
1111110001001111
0000001101001100
1111111011010101
0000000001011101
1111110001011001
1111110101000011
1111111000011010
1111111010111110
0000000111001111
1111101111001000
1111100101010111
1111111001001111
1111110110101001
0000001001110100
0000010000011001
1111110101001110
0000001101011001
1111111100001110
1111110011000111
1111111000000001
0000000101101110
1111110110101001
1111110000001111
1111111101100110
1111111001011011
0000000110101011
1111111101010011
0000000100011010
1111110111010011
0000000000111000
1111110010100000
0000001001010011
0000000000111101
1111110110100111
1111111011110001
0000000011001001
1111111101001001
0000010011010111
0000000110100011
1111111011011101
0000000000001011
1111110101011111
1111111000101110
1111111101111011
1111110111000100
0000010000001011
0000000000111000
1111110000000011
1111111111001000
1111111011011110
1111110101010100
0000000111110011
0000000010010000
1111111111101100
1111110001100100
0000001001001101
0000000011001011
1111110111110011
1111110111111000
0000000110011001
0000000011011001
1111111111010111
1111110110000101
1111110111100000
0000000000011011
0000000001011100
0000000111011110
0000001001111101
1111111011100000
1111111110010100
1111101111110110
1111111001101001
1111111001010000
0000001110100101
0000010001101010
1111111110110000
0000000001110001
1111111100111111
1111111100000110
0000010001110101
1111111001110110
1111110100001011
1111111011010110
0000010000110010
1111110100001010
0000001101000001
1111110100011101
0000001000000111
1111110000000101
1111111111001101
1111111010000000
0000001011100000
0000001001010000
1111111110001101
0000000111010011
1111110000110011
1111110011001010
0000000001011100
1111111110101011
1111111101010001
1111101011001011
1111111000001010
0000001010001110
0000000010001000
0000001011001011
1111111010011100
1111111100101100
0000000000100100
0000001110001001
0000000111100000
1111111010000110
1111110110110001
1111110011101000
1111110000111000
1111101101000101
1111110111100111
1111111110111011
1111110010111000
1111111010110101
1111110100000100
0000000101000100
0000000001011011
0000001101101110
0000000110101001
0000000101001111
1111111111000000
1111111111101100
1111111110111110
1111111001110101
1111111000110010
1111101011111000
0000000111000000
0000001001111001
0000001100000101
1111110110001011
0000010000101110
1111110101111000
0000000101010101
0000000101011011
0000001111110001
1111110100110011
0000000001100010
1111110100011110
1111110100001010
0000000001011110
0000000011001100
0000001100010000
0000010001001110
1111111000010111
1111111001100001
1111111111110110
1111111110100100
1111111000100110
1111111101011111
1111101111000110
1111111111000111
1111111001110011
1111111111001001
1111111101100010
1111111100001111
0000000101110001
1111101111111010
0000000010100110
1111101111110101
1111111100010101
0000001010010101
1111111100011011
1111111001111110
0000000110100100
1111111001110100
0000000111110010
1111111110111010
0000000100001100
1111111000010100
1111111100110010
0000000100100110
1111110101000110
1111111101000100
0000000000011101
0000000011011110
0000000010100100
1111110111100110
1111111110100011
0000000000001111
1111111111101000
1111110101110100
0000010000110100
1111111011111100
1111101010110010
0000001000111111
0000010111000101
1111111000110111
1111111110101100
0000000010101000
0000001000110001
0000001000100101
1111110111111111
0000000110100010
1111110010011011
0000000110001010
0000000101001011
1111110101010011
1111111111011000
1111110001010101
0000000111010000
0000000010000001
1111110000110100
1111110110100010
0000000111111111
1111111100110000
1111110011011010
0000000111001111
0000000010100000
1111111000011010
1111101010101110
1111111100000010
0000001110010011
0000010100100111
1111111011111110
0000000000110111
1111111110011111
1111111111110110
1111101111110101
1111110100100001
0000001010101010
0000001000110000
1111111001000000
0000001011001101
1111111111011000
1111111011001001
0000000100111100
0000000100011100
1111110001000100
0000001010011010
0000001100000111
0000000110110011
0000000111100010
0000000101001111
0000000110011000
0000000011001001
0000001111010010
0000001110101111
0000001000000100
0000000010100101
1111111011000110
1111110001100000
0000000001010000
0000000111110000
0000000101001000
0000010000100110
0000010000100001
0000001100000011
1111101100011011
0000000001110010
0000001010110111
0000000001110101
0000000111010001
0000000110010111
0000000100010011
1111110010101011
0000000000000101
1111111110100011
0000000001011110
1111111101001010
0000000111110011
0000000110111111
1111111100010100
1111111111110101
1111111010010101
0000001001010101
1111111101010110
0000000000111110
0000001110111001
1111111011010100
0000001000101111
1111111111001000
0000001011101110
0000000100100000
0000000100001101
1111111110111101
1111111110010101
0000001011010001
1111111100110000
0000000011011010
1111110100011011
0000000100111011
0000010001010100
0000000101111011
0000001010001010
1111111000010011
1111111110011111
1111111101001011
0000000001010000
0000000010011101
1111111111101101
1111111110000011
1111111010001001
1111110111100000
1111110111110101
0000001010111110
0000000110011001
0000000010110001
0000000101010001
1111111001111101
0000010000010110
1111101111000101
0000000100001101
0000000000111100
0000001011100100
0000001000011011
0000000101111011
1111110010011010
1111111111010100
1111111010101100
1111100111000110
1111100110101100
0000000010011110
0000001010110101
0000000010110110
0000000011110110
0000000100101111
0000010000000110
0000000111100110
1111111000101000
0000010001011101
1111111111000010
1111111001110110
1111110010110010
1111111010010001
1111101000001011
0000000010101111
1111110010010000
1111111011110100
1111111101010000
0000001001101100
1111111111001000
0000001000000111
0000001000011100
0000000101110000
0000000010101011
0000000011110010
0000011001001001
0000001000101111
0000000000101101
1111111010110101
1111110011000010
1111111001000000
0000000001101111
1111101111000100
0000001101100011
0000000001010011
1111111110000101
1111111001001100
1111110101001111
0000000000010000
1111110110110101
1111110111100100
1111111101101000
0000000001110000
0000000000010100
0000000101001110
0000000001101010
0000011011101001
0000000011001101
1111101100111010
1111111111011011
0000001001001001
0000000011100010
0000000011111100
0000001100010101
1111111111111110
1111111001010101
0000001000001101
1111111010100001
0000001001101001
1111111011001110
0000000100100011
0000001010010111
1111111100110011
1111111010111001
1111110000011111
1111111000111011
1111111111111111
1111100100011110
1111110111110101
0000000000001110
0000000010101110
1111111100000110
1111111001111111
0000000100101110
1111100100101000
0000000011010011
0000001011011101
0000000101100100
0000000101000001
0000001010010110
0000000100000100
0000001000110101
0000000001111110
0000001011100100
0000001101100111
1111111111011111
0000001111001000
1111111011110101
1111111000001000
1111110110011000
0000000111110011
0000000100110110
0000001000011111
1111111011011110
1111110111100001
1111110100111001
1111111100111111
0000001010010000
1111111100101101
0000000010100000
1111110101101010
0000001001100011
1111111110110110
1111110111011011
0000001010101010
1111111011011111
0000001010111101
1111110110000001
1111111111001010
1111111010100101
0000001001011011
1111101010101111
0000001100100110
0000001000100010
0000010001100010
1111111111000100
1111111011011101
1111110110101101
0000000010011101
1111111110100100
0000000000110111
0000000110010011
1111101000100111
1111110101000110
1111111111110000
1111110101100101
1111111101111011
1111110111110010
0000000111000100
1111111101000011
1111111101011011
1111110111000101
1111110011010101
1111110111100011
0000000111000010
1111110101100111
1111111000100001
1111111110100001
0000001110111011
1111110001001010
0000000011111010
1111110010001111
1111111010110101
0000000011010010
1111110100000010
1111111011110001
0000001110001010
0000000110111001
1111111000010000
1111111110111010
0000001010110001
0000000110010000
0000000100111010
1111111100000001
0000000101101101
0000000010110000
0000001101000011
0000001001110000
0000000111100000
1111111010101001
1111110010010111
0000000010001000
0000001100001100
0000000001111101
0000000011100010
1111110011011011
1111111000000001
1111110110111101
0000000010100100
1111111001011101
1111110100110011
0000000011111000
1111111100101010
0000000100101000
1111110000111101
1111111111101011
1111111101101001
0000001010001101
0000000000110010
1111111110000100
1111111010010111
0000000110010100
1111110001000111
0000000110110111
1111110101011110
0000010110011010
0000000110111010
0000000010111111
0000000011001001
1111111100001110
1111101011011110
1111111101001011
0000000011010111
1111111100101110
0000001111100101
1111111010100010
1111111110111111
1111110101110100
1111111101100010
0000000110101101
1111111001101001
0000010100100010
0000000110100110
1111111011001100
0000001111001010
1111101011100111
0000010100111110
1111111111000000
0000000010100101
1111111000111001
1111111101011001
1111111010101111
0000001110001010
1111111100111100
1111111111011010
1111111101011100
1111110011110100
0000000011000100
1111111111011101
0000001001000001
0000000111100001
0000010110011101
1111111001011001
0000000111011010
0000001111010011
1111110000000111
0000001011111011
0000001000111110
0000000110011100
1111111110110100
0000001001000111
0000000001001010
0000000101110000
1111111101111110
1111111100110001
1111111010101001
0000000100101101
1111111011111010
0000001001011101
1111111011000100
0000000010111010
0000001111110100
0000001000011100
0000001000001100
1111111100011101
1111111010101010
0000000011100100
1111110001110101
1111111101010111
1111111011011100
0000001110000111
1111111101000011
0000000000100000
0000010111001101
1111111111010101
1111110011010110
0000001011010111
1111111011100011
0000000000000011
0000001101111000
0000000001101000
0000001011101001
1111110101001000
1111111100000111
1111111011110110
0000010000001100
1111110100100011
1111111010001100
0000010001101000
1111111101100010
1111111101100000
0000010001111000
0000000011001010
0000000011011101
1111111000110101
0000001010100111
0000001111000001
1111111111111010
1111111010001011
1111111111010001
0000000100000100
1111111101111111
0000000001010011
1111111011010010
0000001001011010
1111110111100101
1111111010011011
1111111110100101
1111111101010100
0000001011111110
0000011011111101
0000000000001010
0000001011000111
0000001111000100
0000000010110010
1111111100110101
1111111010011001
0000000000111010
0000000000110010
0000011011111100
1111111110001011
1111101111100001
0000001100001110
0000001001000000
1111110000110111
1111110101100001
1111111010001001
0000001001101000
1111111011100110
1111111010010010
1111101011000011
1111111010010111
0000001110001110
0000000011011000
0000010001100110
1111111101111101
1111101110100011
1111111101111001
0000001101100000
1111110110011101
0000000100001110
1111111111101010
0000001100011101
1111110010100010
0000001001111011
1111111110001111
0000001000100101
1111111110001111
0000000011101011
1111110110110001
1111111000010101
0000010110101010
1111111101111101
0000001110011101
1111110111111011
1111110110000111
1111100001110111
0000000010000110
1111110110010110
0000001010011000
0000000000101100
0000001011001011
0000000000101101
0000000110011001
1111110111101010
0000001001111101
0000000011110011
1111111110010110
0000001101000011
1111110110011011
1111110000000001
0000010000010001
1111110000100100
1111101101101000
1111111110010011
0000000101110111
1111111111101111
0000000100000011
0000000010010111
1111111001001001
1111111101000000
0000001101000000
0000000100110001
0000001001111101
1111111100010000
0000001011100100
0000001110001100
1111111000110000
0000001111001011
1111111011110100
0000010001011110
1111110011100111
0000000010111011
1111111010010101
0000000101001101
1111111100100100
0000001110111100
1111101111101110
0000000000110010
0000000100000101
0000001000011000
0000000111011011
0000000100001100
1111110101111110
0000000110011101
1111110101100010
1111111100110001
1111111101111101
0000000011001010
1111111011101000
0000000001101110
0000010011101101
1111111011110011
1111101110011000
1111111101010000
1111111111101001
0000000110111000
0000000110000101
1111110100100100
1111111000111110
1111111100110011
1111110110100011
0000001010110111
0000001001110111
1111101110101001
1111111000111100
0000000010011110
1111111110100101
0000000001000011
0000000101101100
0000000100111101
0000000011100101
0000000101100111
1111111110100001
0000000111000011
1111111100110010
0000001100110101
0000010011011001
0000000010011101
0000000110110000
0000000000111100
1111101011010110
0000001010110110
0000000010010100
1111111111101101
1111111100011000
1111110111101111
1111110111101010
0000000001110010
0000000011000001
1111110111100011
0000010100011111
0000000001101000
1111101110111001
0000000011101101
1111111101111010
0000000110111101
0000001111000010
1111111111001011
0000001111000110
1111111101101101
1111111010000111
0000000011010001
1111110110011000
0000000100101001
0000001100011111
1111111001001101
0000000100001010
0000001111000110
0000001111101010
1111111110100011
0000000101111111
0000000100110011
1111101101110000
1111110010111101
1111111110101010
0000000101100111
0000000111100010
0000001000110101
0000000000101001
0000001101101001
1111111101001000
1111111011010000
0000000110001001
0000000001010010
1111111001100000
1111111011101011
0000000000011110
0000000111101001
0000001001001000
1111101111011110
1111110100111001
1111110011010011
1111111101011100
1111111110011000
0000000100110100
0000001111010001
1111111101011101
1111101010101100
0000001110010000
1111111111101000
1111111011110010
1111111110011001
1111111111100111
1111111001101001
1111110100011110
0000000001000000
1111110110110001
0000000111100010
0000000101011001
1111110111110001
0000001010100010
1111110010010010
1111110001101000
1111110011111001
1111111010110001
1111111101010111
0000001010110010
1111110101100111
1111110010100110
0000000010100101
0000000000111111
0000001111100111
1111111100110101
0000000111010100
1111111010000001
1111111011100101
1111110110010000
0000000010101101
0000000011000111
0000001100100000
0000000110110010
1111110011100100
1111111110000111
0000000110110011
0000000100001001
0000001111010001
0000000111001001
1111101011011111
1111101111101010
0000000100011001
0000000000010001
1111111111100110
0000000110110110
1111110110000110
1111110011011110
1111111110111101
1111111001011000
1111111010101010
1111110101011100
0000000001110111
1111111001101011
0000001011100100
0000000101111110
1111111100001101
0000000001101110
0000000101000011
0000000010001001
1111111111011000
1111111010111010
0000001011001101
1111110011001010
1111111100111010
