memory_initialization_radix=2;
memory_initialization_vector=
0000000100100000,
0000000010111001,
0000000010010000,
0000010101111100,
0000000011001110,
1111110011100001,
0000001001010001,
1111111011110000,
0000001010110001,
0000001010010001,
1111110101011110,
0000000100011001,
1111110001111001,
0000010000101001,
0000000010100101,
0000000000101110,
1111101111111100,
0000000011101110,
1111110111111011,
1111111001001101,
1111110011010110,
1111110001011111,
0000000101101100,
1111110111100011,
0000000011100101,
0000000101011110,
0000000011100000,
1111110100111100,
1111111011111010,
0000000001101101,
0000000011111110,
0000000110100011,
1111111010101000,
0000000001011111,
0000010011100111,
1111111110011101,
0000000101000110,
1111111111001010,
0000001011001100,
1111111101001110,
0000001001000000,
1111111111101010,
1111111111010010,
0000000000001010,
0000001110010000,
1111111010000101,
0000010000101110,
0000001000101000,
0000000001111101,
0000000010000010,
0000000010001011,
1111111110110010,
1111111010101100,
1111110101111011,
0000000001000111,
0000001110001011,
0000000000110110,
0000001011001100,
1111111000010100,
1111111111111100,
0000000001101111,
0000000110001000,
0000000000100000,
0000000010010100,
1111110010101100,
1111111110001110,
1111111100000010,
1111111101110111,
1111111000100110,
0000000011101100,
1111110111100101,
0000000110001000,
1111110011100010,
0000010100000111,
1111111000101111,
0000001111101000,
1111111000011010,
1111111001110100,
1111111111100101,
1111111011010000,
0000000101101111,
0000000010101101,
1111111111110000,
0000000000011000,
1111111100101101,
0000000011111100,
0000000001100000,
0000001010000100,
0000000010111011,
1111111101100011,
1111111110100010,
1111111101010110,
0000001001111000,
0000000001110010,
1111111101101110,
1111111100000001,
1111110100011111,
1111110011100110,
0000010101100111,
1111110111011101,
0000000011000000,
1111111101110110,
0000000100100001,
1111111101001100,
1111110101000010,
0000001011001000,
1111111101010111,
0000001110010010,
0000000100100010,
0000000110000101,
0000000011000101,
0000000001100101,
1111111001111001,
1111111101100010,
0000000001111100,
1111111111001001,
0000000010100000,
1111110101010010,
0000000001011110,
0000000101001011,
0000001000101100,
0000000111010111,
1111111110101010,
0000010010011101,
0000010100010010,
1111111110101001,
0000000001101110,
0000000011110110,
0000001101101100,
0000001001010000,
0000001101110111,
0000001111101010,
0000000011010001,
0000000001110000,
1111110010101110,
1111110111100011,
0000000000011110,
1111111000111100,
0000001010001101,
1111110111011010,
1111111111101110,
1111101110000000,
0000000010001010,
1111111000111010,
1111110100110110,
0000000110001011,
0000000010111110,
0000010011100001,
1111110010111000,
1111111010001010,
1111111000000101,
1111111001100000,
1111111010101010,
1111110110101101,
1111111110011101,
1111111010101011,
0000000101010101,
1111111100100111,
0000000010101101,
1111111110000111,
0000001110111011,
0000000110011101,
0000000101111010,
1111111010101111,
1111111111110100,
1111111100100001,
0000000101101101,
0000000111001011,
1111110110110101,
1111111110110110,
1111110111011010,
1111110000010001,
1111111001001101,
0000000010101100,
1111110011111100,
0000000110010111,
1111110110101100,
1111111101011011,
1111111011010101,
0000000010111110,
0000000101100110,
0000000101110001,
1111110100001100,
0000010000110010,
1111111101110100,
0000000101011110,
1111111111111101,
0000000001011111,
1111110010111000,
0000000101100010,
1111110001000011,
1111111101111111,
1111111100100101,
1111110111100011,
0000001111100101,
0000000111111100,
0000001010010101,
1111111010100001,
1111111110100011,
0000000011001100,
1111110111101011,
0000000011101001,
0000001001111100,
0000001011000000,
0000001000001011,
1111110110010001,
1111110010011010,
0000000010100010,
1111111101000000,
1111111001110010,
0000000101110000,
0000000100110010,
1111111010011100,
0000000110001110,
0000010000011101,
0000000011101000,
0000000101110111,
1111111111110001,
0000000000000100,
1111111000001010,
0000000111010111,
1111111011010010,
1111111110001111,
0000000001010101,
1111111010100000,
1111111110000011,
0000000000001011,
0000001010111110,
1111111110011111,
0000000111100011,
0000000011000010,
1111111001100010,
0000010001100101,
1111110011001000,
1111111100111001,
1111101101010100,
1111111111000101,
1111111000011000,
0000000000111110,
1111110001011110,
1111111010101111,
1111111100001111,
1111110011110101,
1111101111110011,
0000000010111001,
0000000010101111,
1111110111111100,
0000010001000000,
1111110000101110,
0000000010101000,
1111111001001111,
1111111011100001,
1111110111111110,
0000000010010100,
1111111101110011,
1111110101101011,
0000000001010101,
1111111100110000,
1111110101011010,
1111111011011011,
0000001010110011,
0000001010111001,
1111110010100100,
1111111001101010,
0000001001010001,
1111111010000000,
1111111011010011,
0000000011000110,
1111111001000010,
1111111100001011,
0000000011110000,
1111111110100011,
0000000010101101,
0000000111110010,
1111110001101101,
1111111100101011,
0000001101111011,
0000000110001001,
1111111111000111,
0000001000001001,
0000001111000011,
1111111000010100,
0000000011001111,
0000010110110110,
1111111101111001,
1111111111101010,
1111111011111100,
1111110011111100,
1111111111101001,
1111111100011110,
0000001111110100,
0000000001011111,
1111101010011111,
0000001011101011,
0000000101101101,
0000001001100100,
1111111100100000,
0000000011111111,
0000001100001000,
1111101111101111,
1111101010010110,
1111111110111111,
0000001001010010,
0000001110010111,
0000000011011011,
0000001010111001,
1111110010110110,
1111110101101100,
0000000111010100,
1111101100001101,
0000000010000100,
1111111110110110,
1111111011100100,
0000000000011000,
0000000100100010,
1111110110111101,
0000001000000110,
0000001000010000,
0000000010111001,
0000010111110010,
0000000110010100,
1111110010110010,
0000000001011000,
1111111110100001,
0000001110101001,
1111110110001011,
1111111010101001,
0000000010011111,
0000000101110101,
1111110110100101,
0000000110101011,
0000000110001011,
1111110101011010,
1111110111011111,
0000000011110111,
0000000101000100,
1111111101010001,
1111101000100011,
1111101110101101,
1111111010001010,
1111111011100010,
1111101011110000,
1111100110111010,
0000000010111001,
0000000101111110,
0000000011000111,
1111111010011101,
1111111100011111,
1111110001111011,
1111111000011010,
1111111100100111,
0000001000101101,
0000000011001011,
0000010010001001,
0000000111000111,
1111111111000011,
1111111011111111,
0000000000011001,
0000000001010110,
1111110111110100,
0000001100100010,
0000001000001001,
0000000110010010,
1111111110111111,
1111111101110000,
0000000101100000,
0000000110110101,
1111111111011101,
1111110111101111,
1111110101111011,
1111111101000101,
0000001100000001,
1111111110010010,
1111110010101011,
0000000001100111,
0000000100101111,
1111110110110100,
1111110110110101,
0000000000101100,
0000010000100001,
1111111001100000,
1111111001001111,
0000000110110100,
1111110110101011,
0000000011110101,
0000001011010110,
0000001001010011,
1111111000111111,
1111111011101100,
1111111100100111,
1111111000111010,
0000000111111101,
0000000000011110,
0000000100110101,
0000000011000010,
0000000111110100,
1111110011111011,
0000000001100011,
1111101110101111,
0000000010000101,
1111111100011110,
0000001110010001,
1111110111111000,
1111110100110100,
0000000000001011,
1111111001000010,
0000000101110001,
0000000011010111,
1111111100011001,
1111111000110010,
0000001110100011,
1111110110011000,
0000001110010011,
1111111110010110,
1111101010111011,
1111111001111100,
1111111110010110,
1111111111101010,
1111111111001111,
1111110111001000,
0000000000011111,
1111111111110101,
1111111101010001,
0000001100111111,
1111101010001110,
1111111000111110,
1111110101110110,
0000000000111010,
1111111110001001,
0000010010010101,
1111111000000000,
0000000001100111,
0000001001001100,
0000001111111011,
0000000010011101,
0000000111011111,
1111111000011011,
0000001011010010,
0000000101100101,
0000000100111111,
0000001010011100,
1111111101010111,
1111111110100111,
1111111100101101,
1111111110111111,
1111111100011110,
1111111101110000,
0000001110111010,
0000001100011000,
1111111100110000,
1111110110111110,
1111110110011000,
0000010001011101,
0000000100110001,
1111111100100000,
0000000111010100,
0000000100010011,
1111111010111000,
0000001010111010,
1111111111100000,
1111111001110011,
1111110010100100,
1111110010011101,
1111111001001111,
0000001001010011,
1111111100011001,
1111111000001100,
1111111000101001,
0000000111011101,
1111101101110110,
1111111110011100,
0000000011011010,
1111110011000001,
1111111001010001,
1111111110001000,
0000000011100110,
1111111011010110,
0000000010101011,
1111111110000011,
1111111010110101,
1111111000010100,
0000000101011001,
1111110001110000,
0000000011000100,
0000001010001000,
0000000000110111,
1111111011001001,
1111110101101111,
0000001000011101,
1111111110000111,
1111110001100111,
0000001001011110,
0000001010110011,
0000010101000010,
1111111101011001,
0000000111010101,
1111110101101000,
0000001110000100,
1111111101000011,
0000000011010001,
0000000001101010,
1111111011101100,
1111111110001101,
0000000110011010,
1111111001011011,
1111110010000101,
1111110010011101,
0000000100001000,
0000000010100010,
1111111001111001,
1111111000000111,
0000001000010001,
1111110000001100,
1111110110111101,
0000010100010100,
0000000100110001,
1111111101111100,
1111111010101101,
1111111100010111,
1111101100100100,
1111110111100000,
1111110101011011,
1111111100011111,
1111111100000100,
0000001001000101,
0000000101011000,
0000000110111011,
0000000100010111,
0000000000011010,
0000000110111000,
0000000101011110,
0000000110011110,
0000001010100001,
0000000010001110,
1111110110110110,
0000000111000011,
1111110111101111,
0000001001001001,
0000001110100110,
1111111111110010,
1111111110100110,
0000001000111111,
1111111011001011,
0000000101110000,
0000000111011100,
0000000001111111,
1111110000111011,
1111111111100100,
0000001010111011,
1111101100001011,
1111110111111001,
0000001110101101,
0000000100100111,
1111110100110100,
1111111010100001,
0000000011011001,
1111110011101011,
0000000101111000,
0000010001101110,
0000010001011010,
0000001010111011,
1111111100011011,
0000000111010101,
1111110111010011,
0000000101110000,
1111111100110111,
0000001100001110,
1111111011101001,
1111111100000110,
0000000111000011,
0000001100101011,
0000000110111101,
0000001000011010,
1111111100010100,
1111111000000001,
0000001001001000,
1111101100101111,
1111101100000011,
1111111001010011,
0000000010011010,
0000000001111110,
1111111100101110,
0000000010011111,
1111110111000011,
0000000011001100,
0000010110101111,
0000000000100110,
0000000000011010,
0000010011000000,
0000000100110111,
1111110111111110,
0000000101100111,
1111111110011110,
1111111111110100,
0000000100101000,
1111111110111110,
1111111010011101,
0000000101101100,
1111110011110011,
1111111110011011,
0000001010001100,
1111111111000110,
1111111001110110,
1111111101000111,
1111111001111010,
0000000101100010,
0000000101100100,
0000000101101101,
1111111111100100,
0000001000001000,
0000001010111000,
1111111111101100,
1111111110000110,
0000000101100001,
1111110011101100,
0000000100000100,
1111111111101101,
0000000000000010,
1111111111010100,
1111110101101001,
0000001101110000,
0000000010110111,
0000000101110000,
0000000011101011,
1111111100101111,
1111111100000110,
1111111011011110,
1111110110111000,
0000001111110001,
1111110110100010,
1111110000101100,
0000001001001110,
1111111110001101,
1111111111000100,
0000000000101011,
1111111101110100,
1111111010001011,
1111111011000100,
0000001110011011,
1111111100101101,
1111110111110101,
0000001011101010,
0000100010000001,
1111110111011110,
1111111001001001,
1111110011101101,
0000001011101010,
1111110000110111,
0000000011100100,
0000000010001000,
1111111100110010,
1111111010010111,
0000000101101101,
0000000000000101,
1111111000100000,
1111111001010111,
1111110100001110,
0000001000101011,
0000001011001110,
0000001001111100,
0000001010011110,
1111110111111101,
0000000000100000,
1111111100100100,
0000000111110010,
0000000001001111,
0000000110011001,
0000000000100010,
1111111011111011,
0000001101111100,
1111110110011100,
1111101111000010,
1111110001011000,
0000000000011100,
0000000010001000,
0000000000101000,
0000001010000110,
1111110000001110,
1111110001000110,
0000000001010011,
1111111011011001,
1111111100100100,
1111111011000111,
1111111100101100,
1111111000100001,
1111111000001001,
0000000101101111,
0000000101000101,
0000000010100101,
1111111101101000,
1111111101100010,
1111111100101110,
0000001100101100,
1111110010000011,
0000000101110110,
1111110111000101,
1111111001101100,
0000001100001011,
0000000011000000,
1111110111101111,
1111110100000101,
1111111110000010,
1111111100110100,
0000000000101100,
1111110110101011,
1111111100110100,
0000010100100111,
1111111110101001,
0000000011001000,
0000000110001100,
1111111101001111,
1111110100110011,
0000000001010011,
0000000001011010,
1111111001110101,
0000001010111000,
1111110011000101,
0000001101111011,
1111111000100001,
0000000110101111,
1111110111001111,
0000000011000000,
1111111000000011,
1111111100011000,
0000001110111100,
1111111011000010,
1111110011000001,
1111111111000000,
0000001011000011,
0000000110010111,
1111111110100111,
0000000101000000,
0000001000111001,
1111111000110101,
1111111111101000,
1111111111011111,
1111110111111010,
1111101010111110,
0000001100101101,
1111111101110010,
1111110001010110,
1111111010001101,
1111111110010100,
0000000011101100,
0000000110111000,
1111111001000011,
1111111010000010,
0000001001001001,
1111110101011011,
0000000100110011,
0000000001110011,
1111111111110010,
1111110101100001,
0000000110101100,
0000010000000100,
0000001001011001,
0000001110110101,
1111111111011110,
0000001110101010,
1111111111010001,
1111110011110010,
1111111001001011,
1111111100110111,
1111111111101011,
0000000001011101,
1111111110010111,
1111110000110001,
1111111100000011,
1111110000101111,
1111111110101101,
0000000100111011,
1111101111101100,
1111111000001101,
0000000010001100,
0000000001011100,
1111111111000000,
1111111110101110,
1111110000111011,
1111110000111111,
0000000111101110,
0000001010000110,
0000000010000100,
0000001010011011,
1111101011001101,
0000001001101101,
0000000100011010,
0000010000101110,
1111111001011110,
0000000011100011,
0000000000010101,
0000010000010010,
1111110010100000,
1111111010111110,
1111110111001111,
1111110011110101,
0000001010100011,
1111100111001111,
0000001001010111,
1111110101110011,
1111101011011010,
0000000011101111,
0000000111100001,
1111111110100011,
1111111010000100,
1111111001010011,
0000000011000111,
0000000011010000,
0000000001010110,
1111111000000100,
0000001010011111,
0000000011010010,
0000001111111010,
1111111111010011,
1111101101000011,
1111111011010100,
0000001001111010,
1111111100100010,
1111110010110111,
1111111010011010,
1111110000110100,
1111101001110111,
0000001011001100,
1111111110100011,
0000000101110000,
1111111001011101,
0000000011101001,
0000000101110111,
0000000110001110,
1111111100111011,
0000000111100011,
0000010111101101,
0000010010100111,
0000000001000110,
1111111100100010,
0000000100101100,
0000000010000110,
1111110111101100,
1111110100001100,
1111101100011110,
0000001110010000,
0000000000100101,
0000001100000101,
0000000011101111,
1111110101110011,
1111111000100110,
1111111111101101,
0000000000000010,
0000000101110010,
0000010000010011,
1111111111010111,
1111110110011010,
1111111110100101,
1111111101100000,
1111111011110100,
0000000001001000,
0000000001010110,
1111101111000100,
1111111010011111,
1111111000101000,
0000010011101010,
1111110100110101,
1111111100010101,
1111111110000110,
0000001011100110,
0000000000010011,
0000000101001111,
1111110110001001,
1111111111011100,
1111110101100110,
1111110000010011,
1111110100100101,
0000001011111101,
0000001101111101,
1111111111010010,
0000010000100100,
1111111100101110,
1111111011110011,
1111110010011001,
1111111010011000,
0000000011111000,
1111111011001100,
0000000110100111,
1111111111010010,
0000000000101110,
1111110000010111,
0000000010110100,
1111110101111111,
0000000111000100,
0000000011001001,
0000000000110010,
1111111111100011,
0000001000010001,
0000000110110000,
0000000010111110,
1111111100011101,
0000001010111011,
1111111100011010,
1111110110010111,
1111111011100011,
1111111110111111,
1111111010110000,
1111110110101000,
0000000101011010,
0000000011110001,
0000010101110000,
0000000011110101,
0000000111000000,
1111110110001100,
0000001001011000,
1111111011101000,
1111111000011100,
1111111100011011,
0000001001100011,
1111111011100100,
0000000001111100,
0000000101001010,
0000001010101100,
1111110011100100,
1111111010110101,
1111110110101000,
1111111110010000,
1111111000110100,
0000000011101100,
0000000101011000,
0000000000111100,
0000000000010110,
0000001001010011,
0000000010101011,
0000001101100011,
1111110110111001,
1111110101000110,
0000001100000010,
1111111001100010,
0000000101011011,
0000010001001010,
1111111101000000,
0000000111101111,
0000000000000111,
0000001100001101,
0000001001010011,
0000010001001001,
0000010010111010,
1111111000110000,
1111111001001101,
0000001100000010,
0000000111100011,
1111111110111101,
1111110101101110,
0000010011001010,
0000000000000011,
1111111110101011,
0000001110101001,
1111111101010111,
1111111010000110,
0000000000111000,
0000000011100000,
0000000001110100,
0000000011010100,
0000000101110101,
0000000100111100,
1111111111111011,
0000000101111010,
0000001101100010,
0000000010110000,
0000001000011101,
0000000011010010,
1111110111101001,
1111111101000100,
1111111100010001,
0000001110010110,
1111111101000111,
1111111011010010,
1111111111010111,
1111111101101110,
1111111111000100,
0000000100000000,
0000000011111100,
1111111110101100,
0000000001101111,
1111110011111001,
1111101101000100,
1111111001110000,
0000000011001001,
0000000001101011,
0000001001100100,
0000011000010101,
1111111011011001,
0000000011111010,
1111110110100110,
0000000001011010,
0000000010110001,
0000001001110100,
1111111010001111,
1111111110010100,
1111110110111110,
0000001001100100,
1111111110111001,
1111110100010001,
1111111101110000,
0000000000000101,
1111110110000100,
0000000111101000,
0000000100111101,
1111111001110100,
0000000011001011,
0000000010110110,
0000000001010111,
1111111111001000,
1111111100011001,
1111111001111110,
1111111110011111,
0000000001000101,
1111110111101011,
0000001010011110,
1111111011010001,
1111111110011011,
1111111000001000,
0000000001111101,
1111111101110011,
1111111111010100,
0000000111010100,
1111111010010001,
1111110111101000,
1111111110010000,
0000000110100100,
1111101101011111,
1111110110100101,
1111110001010101,
1111111110000000,
0000010001110011,
1111111101001110,
1111111011011011,
0000000100100000,
0000000100001000,
1111111110010011,
1111101001011000,
0000000101110011,
1111110011011010,
1111110100100011,
1111111111010001,
1111111010100001,
1111111000011011,
0000000100001100,
0000001000100000,
1111111011001001,
0000000101011101,
0000001011111111,
0000010100011100,
0000000110011010,
1111110111101011,
1111111110011011,
1111110100111100,
0000000110110111,
1111111101011001,
0000001011001101,
1111111111001100,
1111111010111101,
0000000100001011,
0000001110011011,
0000001000101110,
0000000000001100,
0000001110101011,
1111111010100011,
0000001010001001,
0000001100101101,
0000000111001001,
0000001110111010,
1111111000101101,
1111101110000001,
0000001101000000,
0000000001110010,
1111111101001000,
0000001001001100,
0000001000101110,
0000000000111100,
1111110101010011,
1111110101010011,
0000000011000101,
1111111011111101,
0000010100011011,
1111110101000111,
0000000110110111,
1111111010100011,
1111111111110101,
1111110100011110,
1111110101100011,
0000001010011100,
0000000101011001,
0000000010001111,
1111111111010010,
0000000011000101,
0000000000101100,
0000000111111000,
1111111011101111,
1111110011011011,
1111111111010111,
0000000011101000,
1111110110001111,
0000000011110110,
1111111000000101,
1111111111111110,
1111110110101110,
0000000111000100,
1111111111000010,
1111110110100110,
1111110111111101,
0000000000010011,
0000000000100011,
0000000010111110,
0000000011011101,
0000000000110100,
0000000101111011,
1111101010100001,
0000000011111001,
1111111110000110,
1111110110111010,
1111110111001000,
0000001010010010,
1111111010010011,
0000000111010001,
1111111100011110,
0000000101011111,
1111111111001111,
1111111101111111,
0000001111010100,
1111110111101000,
0000000000001110,
1111111100110111,
1111110111010011,
1111111111110000,
0000000110010010,
1111110101010100,
1111111101011111,
0000000100101000,
1111111101011110,
1111111110111001,
1111111111100100,
0000010100001110,
0000000111011100,
1111111000001101,
0000001010010001,
1111110001110001,
0000000000000000,
0000000101101101,
1111111000001110,
0000001100110101,
0000000100010011,
1111110000100110,
0000000101001100,
1111101110101110,
0000000011101100,
1111111001100000,
1111110001100110,
0000000001010010,
1111111111110100,
0000001111110010,
0000001011011001,
1111111001111110,
1111111100110111,
1111111001100100,
1111111101100111,
1111111100000101,
1111111010111111,
0000000010100110,
1111101001011011,
1111111000011010,
0000000111011100,
1111111010111111,
0000000010000000,
0000000000100110,
0000001010110101,
0000000011111101,
1111111101011110,
0000000011111100,
0000000101000000,
0000000101111111,
1111111000110100,
0000000100111011,
0000001100111010,
1111111001001011,
0000000110100110,
0000000001000011,
1111111101101001,
1111111100011101,
1111110001101111,
1111100111101101,
0000001011000101,
0000001000100100,
1111111010000001,
0000000000101101,
0000000001011100,
0000000010001001,
1111110101011010,
0000001110000110,
0000000011100101,
1111110110011110,
0000001010001011,
1111110100011010,
0000000110111010,
1111111111111100,
0000000010110011,
0000001001000101,
0000000101000000,
0000000011010000,
0000001000111101,
1111110001101001,
0000000110111001,
1111111101110101,
0000000110110111,
1111110110001001,
1111110100101100,
0000010001111010,
1111110101110011,
0000000010011010,
0000001011101111,
1111111101011001,
0000000001110110,
1111111111111111,
1111111101111011,
0000000001100001,
1111111111011001,
1111110011101101,
1111111110111100,
1111111001100100,
1111111011010001,
1111111011111010,
0000000001000000,
0000000000010101,
0000000111011000,
1111110011101010,
0000000011011101,
0000000101111110,
0000000010100001,
1111111010111010,
0000000100000001,
1111110011110010,
0000001100110001,
0000000110001000,
1111110001001111,
0000001110100000,
1111111000100011,
0000000110001100,
1111111100000111,
1111111110001010,
1111110100001100,
0000001011101010,
1111111000101011,
1111111011011001,
0000000110100100,
1111101110111111,
0000000100010001,
0000000000000000,
0000001101011101,
0000000011110000,
0000001010001011,
1111110111100011,
0000011011011101,
1111110100110111,
0000001101100001,
1111110101111111,
0000001100111011,
0000000000010011,
1111110011110100,
1111111111100010,
1111111001010001,
0000000000010111,
0000010001000110,
1111111000100101,
0000001010100001,
1111111011010011,
0000001010101010,
0000001100101000,
1111111001011100,
1111111011100110,
1111110001000010,
0000000010111011,
0000000101010100,
1111111101010101,
1111111110111110,
1111111110011001,
1111110101110101,
1111111011010100,
0000000100111110,
1111111111101001,
1111111111111011,
0000000100000001,
0000010000010101,
1111110000010110,
0000000000011010,
1111111011111111,
1111111110011101,
1111111011100110,
1111111101100011,
0000000100000001,
1111111101000111,
0000000110110001,
1111101110000111,
0000001010000011,
1111110111111001,
1111110011000000,
1111110001010111,
1111111100101011,
0000000000110111,
0000000110100010,
1111101100001010,
0000000001000010,
0000001001100011,
0000000111110100,
1111111011100011,
0000000001111001,
0000001001100111,
1111110100010100,
1111111100111000,
0000001001101010,
0000000101001100,
1111110111100011,
0000010100110101,
1111111101010101,
1111110100000011,
0000000100000101,
1111100110111100,
1111110001111110,
1111110110100000,
0000001000111101,
0000000000010100,
1111111001011100,
1111110111100110,
0000000000110010,
0000000100111100,
0000001001110011,
0000010101101110,
0000001001011001,
0000000010110101,
0000000001101101,
1111111110000110,
0000010000111010,
1111110110111001,
1111101100101111,
0000000011011111,
0000010000010010,
0000000010110010,
0000000011101111,
1111101111011101,
0000000000000000,
1111111100011100,
1111111001100111,
1111111111101100,
0000000001100100,
0000001001000011,
0000000010100010,
1111110110011111,
1111111101100010,
1111110001010100,
1111111010111101,
0000001100010100,
1111110000000001,
0000000000001000,
1111111111110010,
1111111110100101,
0000001000101110,
1111111110010111,
1111111101111101,
1111111001011101,
1111111110001010,
0000001001011011,
1111111100001111,
1111111110110011,
1111111000111011,
0000000010011111,
1111110101100100,
1111110111100001,
1111111000101010,
0000000011010001,
1111101110011010,
1111101111010011,
0000000011110100,
0000001010101100,
0000010011101101,
0000000001011100,
1111110010110001,
0000000001011000,
0000010100100011,
1111111100110111,
0000000101101111,
1111110111010101,
1111110000111110,
0000000000111011,
0000000110100000,
1111111010111101,
1111111101110001,
1111111000110111,
1111110110111110,
1111111111000100,
1111110111011110,
0000000110011000,
0000000011111101,
0000001110000011,
1111110101100100,
0000001101111110,
0000000111111010,
0000010010000011,
1111110110110111,
0000001100001001,
0000000010010000,
0000000100001001,
0000001011111010,
1111111000001010,
1111111100010101,
0000010100010010,
0000001101011110,
1111111001111100,
1111111011111000,
1111110001011011,
1111111110001011,
0000001100000101,
0000000111011101,
1111110000101100,
0000001101000001,
0000000101001111,
0000001100111110,
0000000000100110,
0000000000010001,
1111110011111011,
0000000110110010,
1111111001111101,
0000000100111000,
0000000001000001,
1111110001100010,
0000000100101101,
0000010010000101,
0000000001001111,
0000010101010100,
1111111110110000,
1111111000011100,
0000000000000000,
1111111100010000,
0000000001011110,
0000000010110001,
0000001100000111,
1111110101011110,
0000000110000110,
1111111110110000,
1111111101001100,
0000000010111100,
1111111101110001,
0000001011000111,
1111111111001011,
1111111001001010,
0000000111101110,
0000000010000011,
0000000010001101,
0000010001100111,
1111111010100110,
1111111101110111,
0000000011100011,
1111111111010001,
1111111011100101,
1111110110100101,
0000000000011001,
0000000011101111,
0000010101101110,
1111111111110001,
1111111101011000,
1111111101011011,
1111110011100100,
0000000011001101,
0000000001110010,
0000000011100111,
0000010001101100,
1111111001101101,
0000001100001010,
0000000111110100,
0000000011101010,
0000000101000000,
0000000111011011,
0000000110011101,
1111110110101110,
0000001000110001,
0000001001011001,
0000001111101010,
0000010011100110,
1111111110000010,
0000000000101100,
0000001101100110,
0000001101000010,
1111110111100010,
0000001010101101,
1111111110101111,
1111111100001001,
0000001001010101,
0000000110101110,
1111111001011010,
0000010001001111,
0000000111100101,
0000001100101010,
1111111110010111,
1111111101010111,
1111110000000011,
0000000110111001,
1111111111111111,
0000000100110101,
0000001110100100,
1111101011000010,
0000001100001000,
0000000011000011,
0000000100010010,
1111111001100100,
0000001010001011,
1111111110000001,
0000000010001000,
1111110111001000,
0000001001001011,
0000000110001111,
0000010100001011,
0000000001001111,
1111101100001101,
0000000100110101,
1111111000110111,
0000000000100111,
0000000000001101,
0000001000111011,
1111111100110111,
1111111010100101,
1111111111110011,
0000001110000010,
0000000100100001,
0000000010010001,
1111111110000100,
0000010001100111,
0000000100001000,
1111111011100010,
0000000111110110,
0000000110100101,
1111111001110011,
0000000111111101,
1111111001001000,
0000010101011010,
0000000111000010,
1111110011101011,
1111101001100011,
0000000110000010,
0000000000111101,
1111111111011011,
1111110110101001,
1111111010111011,
1111101110001011,
1111111011011011,
0000000110010110,
0000000001111010,
1111111111110011,
1111111111000111,
1111110110100110,
0000000011001001,
0000000111011110,
0000000000001100,
0000001001110000,
1111111101010010,
0000000110111101,
0000001000001001,
0000000000110101,
1111110111001000,
1111111110110010,
1111111001000011,
1111110111100010,
1111111011011101,
0000000010101111,
0000000001111111,
1111111111000001;