1111110011111011
0000000111001101
0000001100101101
0000000001100000
0000000000011010
0000001110011110
0000000001000101
1111100100111111
0000000110010000
1111111100110101
0000000000100011
0000001110000000
1111111101100001
0000000101110010
0000010001000010
1111111000110010
1111111001111010
1111111011011010
0000001110001000
1111111110001001
0000000001000110
1111111100110111
0000000001111001
1111111000101111
1111111000110110
0000001010011100
0000000100101011
0000010001110001
0000000010010111
0000000010001101
0000000100001110
1111110001010100
0000000001111111
0000001101100000
1111111000001001
0000010100011101
1111111110011001
1111111111101001
0000000000111100
0000010001110100
0000000010101111
0000000100101010
1111111010111110
0000001100011011
0000000110111110
1111111110001000
1111101010011100
1111110111001110
1111101110100110
0000000101110011
0000001001110100
1111111110101010
0000011001010001
0000000100010010
1111111001000111
1111110100011000
0000010100000010
0000001011001110
1111110011100000
0000000001011101
0000000010011001
0000001100100001
1111110000011100
0000000010111101
1111110110011011
0000000111111101
1111110111110011
1111110111001010
0000000101011101
0000001100010010
0000000100111101
1111111101111101
1111111000111001
1111110001100101
1111110110010011
0000000010100010
0000000100010100
0000000111111101
1111111111100110
1111111101101100
0000000110100001
0000000010110011
1111111000011100
1111110011101011
0000000010110110
0000001111011110
1111100110011100
0000001001000010
1111111101000110
1111111001100100
1111111101010100
1111111110101111
0000000000111011
0000000111101001
1111110010101111
0000000101110011
1111110010000011
0000001000001011
1111110110100000
1111111100010011
0000000111100010
1111110011111011
0000000111110001
1111111010011110
0000000011011111
0000000100001100
0000000110111001
1111111011000011
0000000000101000
0000000000000110
0000000010101101
0000000010111000
0000000010110011
1111111110110110
1111111100111010
1111111001010011
0000000010010001
1111111010001010
1111111101001100
1111111100010001
1111111100100111
0000000000000001
1111111011011101
1111101111000001
0000000111000110
1111111001110001
0000000010001100
1111111100111000
1111111001101101
1111111010000011
0000000011011101
1111111111101011
1111110111100111
1111111101111110
0000000001111110
1111111011010100
0000000010000101
1111110101101110
1111110010000101
1111111110111110
1111111110101010
1111110101110111
1111110100010110
0000000100111100
1111111001110001
0000000101101000
0000010101101101
1111110111101110
0000000101001011
1111111000010100
1111111010110111
0000000000000000
0000000110000001
1111111110011011
0000001011001101
0000000111111111
1111111111110100
1111111110000001
0000000010010000
1111111001000101
1111110110110011
0000000000000000
1111111100011010
0000011010010111
1111110100111000
1111111000011011
0000001001101100
1111111101110110
0000000011011100
1111111001000010
0000000010000101
1111111000101101
0000000000011110
1111101101001000
0000000111011011
1111111110010000
1111111110111100
1111111011100110
1111111001111000
0000000010001100
0000010111011101
0000000000111111
0000000111000001
0000010011110001
0000001111000101
1111111001100001
1111101110010010
0000000001101000
0000000001011101
1111111101001010
0000000000010010
0000001010110100
0000000100100010
1111111001000110
0000000001001100
1111110100101101
0000000000111110
1111111110001111
1111111001110001
0000000011111011
1111111100110101
1111110101011000
0000001001000110
1111110110010101
1111101110000000
0000001100010001
1111101111110100
0000000100110101
0000000111001101
0000000101001111
1111110111101011
0000000101101011
0000000011000110
0000001011101011
0000000111101000
0000000001000110
1111111100010001
1111110100101100
1111111011011000
1111110100100100
0000001010110100
0000000011111011
0000000000000011
0000100101110110
1111111011110100
1111111101001110
0000001000011100
1111110111111011
0000000011110010
1111110100010101
0000000010101010
0000001000011010
1111110101101001
0000001010010111
0000000100111100
0000001000001111
0000010010011100
0000000001100111
1111111101100000
0000001101110010
0000000010100010
0000000011000010
1111111000100000
0000011000011100
0000000000101010
1111111000111111
0000001011001101
0000001110011111
1111111001001100
0000001000100001
1111111110110000
0000000100110011
0000000010100010
1111110100111011
0000000010101100
0000000101111010
1111110110001011
1111111101001111
0000001010011010
1111110001011111
0000000011011011
1111111011100011
0000000010000111
1111111000111000
1111110110100101
1111111011011110
1111111100101011
0000000110000011
0000011000101110
1111111110011000
0000000101100110
0000010010100101
1111110111001001
0000000111101011
1111111011000101
1111101110111110
1111110110110001
1111101101101111
0000000100000110
1111110101110111
0000001110100011
1111111111001101
1111110111011111
1111110111000000
1111101110111000
0000000011010000
1111111001101110
1111111101100111
1111110001010100
0000000110010101
1111111011000000
1111111101000110
0000001001110111
1111110111111000
1111111010110100
1111111001101001
1111110111101001
1111111110011100
1111110111100000
0000000110111101
1111111101101101
1111110010010100
1111111001011111
0000000101011011
0000000011000110
0000000101010110
1111110010010000
1111111101100111
1111111100101110
1111111001101010
1111111001101000
1111111100010100
1111111101011110
0000000010010111
1111111001111000
0000000001111010
1111111100010000
0000001000100110
1111110001101010
1111111100011000
0000000110101001
1111111110000010
0000000010010000
1111111011000101
0000001001101010
0000000010100110
0000000011001001
1111111101111111
1111111111101011
1111101110010101
0000001111011000
1111111101011010
1111110000101010
0000001100111011
0000000110001111
1111111011110001
0000000110001010
0000000100110110
1111111001101101
0000000110011000
1111111100011001
0000000000000100
0000000000000101
1111110111101010
0000000101000110
0000001101011001
0000000011010101
0000001001000000
1111111110001101
0000001110011011
0000001010001010
1111111010110010
1111101001111000
0000010011100000
1111110110101011
1111110011110000
0000000111101110
1111110001011010
0000000100000111
1111111011001111
0000000011110101
1111110111000111
1111110111111100
1111111110010111
0000001100100100
0000001010111100
1111111010011001
0000000010111010
0000001100101101
0000000100000000
0000001101001010
0000000010110111
0000000010011100
1111101100010000
0000000000001001
1111111100001101
0000010010000101
0000001000101000
0000000100100100
1111111001101010
0000000011011011
0000000111001111
1111101010100110
1111111101100111
1111111011000011
1111111011111110
0000001100000001
0000000110110001
0000000000011011
1111111000001101
1111111110101101
1111111011010110
1111110110010000
0000000011011110
1111111111100110
0000001110111011
0000000010110001
0000000011010011
1111111101011011
0000000101100011
1111110110110100
0000000000011001
1111111101101001
0000000111000111
1111110100101110
0000000001110101
0000001101001001
0000000011110000
1111111101011001
0000000100110110
0000000011000111
0000000001010111
1111111101110110
0000001001111101
0000000010000110
0000000011001100
1111110100000000
1111110000000001
1111101111110001
1111111111000011
0000000100100010
1111110111100001
1111111000010000
1111111111111100
1111111100000111
1111110111001000
1111110110000010
0000001001000111
1111110010110011
0000001011001011
0000001000100000
0000000010111101
1111110001010101
0000010000101001
0000000110010011
1111111011001111
1111110011011011
1111111111000111
0000000010011010
1111111010010001
1111111110100010
0000000001010111
1111111000011110
0000000101000010
1111111100100110
0000000011011111
0000001011010001
1111110001100100
0000010101010110
1111110000011111
0000000100111110
1111111001101000
1111111011100010
0000000100100001
1111111111001101
1111111010110010
1111111001101100
1111111110001000
0000001001001000
0000000101001001
1111111000111011
1111110011001101
1111111000110100
0000001001001000
0000001101111101
1111111111101010
0000000011011001
1111111011101011
0000001001000100
1111110010100000
1111110110110010
1111111100111111
0000000010001010
1111111011101010
1111110110010000
0000000110101111
0000000000001011
1111111101110100
1111111011111100
0000000110111001
0000011011000011
1111111001010011
0000001010101110
1111111010101100
1111110000110010
1111111100000000
1111101000000101
1111101001011000
1111111110110101
1111111111000111
1111110110111010
0000001001110110
1111110111011000
1111110111001001
1111111000011110
0000001010011001
0000001011011000
1111111001101111
0000000101110100
1111110101001100
1111111000100001
0000000101100001
1111110101110001
1111111101110010
0000000110000011
0000000111010111
1111110110011100
0000000000000111
1111111010010000
0000001011010011
1111111110000110
1111110110100000
1111111101110010
1111111100101101
0000000111101000
0000000010100010
1111111000101011
0000000111111000
0000001001000111
1111111100011101
0000000011000000
1111110111111111
1111111011000000
0000001011101110
1111111100011000
0000011000010010
0000000111110110
1111111000100010
1111111010111110
1111101000111100
0000000001111110
0000000101110010
1111111111010101
0000001001010011
0000001011011010
1111111010111000
1111111111000001
1111111011111001
1111111101001100
0000000111101011
1111111110101001
0000000111001111
0000000010111110
0000000111001100
0000001110111100
1111111110111100
0000001111011110
0000000110110001
1111111100011001
1111110101010001
0000000011001111
1111101011100000
1111111111000000
1111111111110111
0000001011110111
0000000010111011
0000000001110100
0000001011111100
0000000100000111
1111111010111101
0000000000101101
0000001100111001
1111101111110110
0000001101011001
1111111000001110
0000000010101010
1111111100101101
0000001110111101
0000000011111110
1111110100011010
1111111010000001
1111111111010010
0000000000010011
0000000100000011
1111111001100111
1111110100101100
0000010000001111
0000001110001011
1111110101111010
0000010010001011
1111110110010010
0000000000010100
0000010000100110
1111110111000111
1111111001110011
1111110110101000
0000001101000000
1111111101111000
0000000011011110
0000001010001101
1111111001011111
0000010011001100
1111111101000011
0000000000000111
0000000001011001
0000001000111110
0000000010110100
1111111100011100
1111110010101010
1111110110110101
0000000011101100
1111111010111010
0000001010000000
1111111110111001
1111101101010010
1111111000010011
1111111101101111
1111111001001100
1111111011111110
0000001001110011
0000001001011111
1111111001100110
1111111110001100
0000000100001011
0000001100011100
1111111011011010
1111111001111110
0000001001010101
1111111110111010
0000000101000001
1111111001111101
0000000000010100
0000001010011100
1111110010101110
0000000101000110
0000000100110100
0000000110010111
1111111011101100
1111110101101101
0000000000101000
1111111111110001
0000000010110110
1111111001101000
0000000111110110
0000001001111100
1111111111101110
1111111001110001
0000000010110101
1111111111011101
1111110101101000
1111111110011011
1111111000000001
0000000111101001
1111101110011101
0000000101111000
0000001111100000
1111101111100100
1111111010110100
0000001011000000
0000001010000011
1111110001000010
0000000000010010
1111111011001111
0000001110000101
1111111010111011
0000000011101010
1111111000100001
1111110011010001
0000001111011111
1111110110000110
0000000000100001
1111111011001110
0000000101010000
1111111011011010
0000000011011000
0000001011000110
0000000011010001
1111110010110011
1111111010010010
0000000011001010
0000000001111011
1111111111111011
0000011010001101
0000010001100100
1111110111101111
0000010100111001
0000000100111111
1111111110001100
0000000011101000
0000001001000100
1111111000001010
1111111000000011
1111111111111001
0000010101100111
0000001000110101
1111111001100011
1111110011000011
0000010011010101
0000000001100111
0000000100011011
1111111101110111
1111111110001011
0000001001000000
0000001001111101
1111111011111001
0000000111010011
1111110000011110
0000001011000110
1111110000000001
0000000110101001
1111111000001100
0000000010100011
1111110111000110
1111111111100101
1111110100000001
0000000110001101
1111110011101110
0000010001010011
1111110100001001
1111111111010111
0000000010010011
0000001101001010
0000010000010100
1111111100100101
1111111101111111
1111111100100010
0000000011100111
1111110111000100
1111111110000001
1111110100010110
1111111001001010
0000010100100110
0000000110111101
1111111111111110
1111111011001001
0000000111001101
0000000000001000
0000000110111100
1111111100111011
1111111100100101
1111111111110011
0000000101011111
0000001100010111
1111111000110011
1111111101101100
1111110001010010
1111111001110100
1111110110101101
1111111001010110
0000000010000110
1111111000101101
1111101011011111
0000000111011101
0000000110100101
1111111101001110
1111111010111010
0000000010100000
0000001011111010
0000001111010010
0000001100000010
0000000010010011
0000001010000100
1111111110100100
0000000000001100
1111101100001000
1111111100101110
0000000100111001
0000001100100010
1111101011100111
0000000011100001
0000000010001101
1111111100111101
0000000111001100
1111111001111011
1111110101111011
0000001000111110
0000000110111010
1111111111110100
0000000011101100
1111110110100000
1111111111110101
0000000001111101
0000000010100100
0000001010101000
1111111101111111
0000001001010010
0000001001111000
1111111110001101
0000000110101011
0000000011011111
1111111100101100
1111111010011101
1111111101010101
1111111000000101
1111111011001001
1111111011101100
0000000010100011
1111111000000001
1111101010110101
1111111101101101
0000001010000100
1111111011100100
1111111111100011
0000000011110101
0000000011010001
0000001001011101
0000001101001110
1111110110101011
0000001010000101
1111111100101111
1111101111111000
0000000000100111
1111110101110000
1111110100111000
0000001001000101
1111111000100101
1111111110011101
1111111100000111
1111110100000101
0000000000001110
0000001001111011
1111110110110100
0000001000111111
1111111000011000
1111110111011010
1111111001110010
1111111011110011
0000001001101101
1111111101001011
1111111111110111
0000000100010100
1111111101110011
0000000011010101
1111111111010111
0000001101101110
1111100100101101
1111110001011000
0000001100111000
0000000111110111
0000001000110000
1111110101100100
1111110000001000
0000000110010001
0000001111010100
0000001110011000
1111110111001000
1111111101000101
1111101001101111
0000000110111000
0000000111010101
0000001010101011
0000001011110111
0000001010110110
1111101101111100
0000010011011110
1111110111000100
0000000000010011
1111111100001101
1111111100001001
1111111001001101
1111111100000101
1111111110011111
0000000001000111
0000001000000111
0000000000101010
1111110011111101
0000001100000010
0000000111010011
1111111010110101
1111111010101001
1111111101111101
0000000000010100
0000000111001011
0000000011011111
0000000000101111
0000000100110100
0000001111111001
0000000011111001
0000000011111111
0000000001111010
1111111011010000
0000000001001000
1111111011010110
0000000101101000
1111111100010110
1111110110010100
0000001111000010
0000000011001000
1111101001100101
0000000111001010
1111110101111010
0000001011001001
0000001010000100
1111110110011110
1111101110011111
1111111100011001
1111111101000011
0000000011010100
0000001000011101
1111111100010000
1111111100101100
1111111110110100
0000001110101010
1111111000001010
0000001101011000
0000001111011000
0000001000111101
1111101101001100
0000000010101011
0000001001100001
0000001000000110
1111111111101010
1111110010101011
1111111100010101
0000000101110001
0000000111010100
1111111011001010
0000001101001000
0000000100010110
0000000101011100
1111101111111010
0000000001010010
0000000010000101
1111110101001001
1111111010001010
1111111000110110
1111111100011100
1111111101111101
0000000000111101
0000000001000111
1111111110001010
1111111110011000
1111111000111010
0000000001111111
0000000111101110
1111111111100001
1111110001010100
0000000010001111
1111110101111100
1111111111001100
0000000110011101
0000010011001001
1111111001111111
0000000110111100
1111110010000000
0000000011011111
1111111111010110
0000000101001000
0000000110010001
1111110110101111
1111111011110101
1111110111000001
0000000011011010
1111110001001110
1111111100111111
1111111100101011
1111101001001011
0000010010101100
0000010000010101
0000000001000001
0000000111011010
1111111011011100
0000001110001110
0000010011000110
1111111001011011
1111111111101111
1111111110110001
1111111011111111
0000000011100101
1111110000000011
0000000001100110
1111101110101111
0000001000100010
1111110110111100
1111111000111110
0000000000011110
1111110011010010
1111111011010001
1111111111111000
1111111111001011
0000000101010010
1111111010101101
1111111000110100
1111110011011111
1111111101100101
0000000100000000
1111111010010010
1111101100101000
1111111010011111
0000001100110000
1111111111000100
1111111100101010
0000000010111101
0000001000011100
0000000111110111
1111111100100101
0000000001001110
0000000000001001
0000001010011101
1111111011111001
1111111101100101
1111111110111010
1111110001001010
1111111100011101
0000001100111100
1111111101000100
0000001000011010
1111111110110010
1111111001010100
0000000010111000
1111111110111110
1111110001010100
0000000001000010
0000000111001100
0000000001111101
0000001001000000
0000001000101100
1111111010110001
0000000000000110
1111111101101101
0000000110001101
1111111100000101
0000001011000011
0000000010111010
1111110110111010
1111110110010001
0000001011101101
1111110010110100
1111101000111100
1111110111111011
1111111110101010
1111101101001110
0000010110000111
0000000000000010
0000000000110010
1111110111100010
1111110011101010
0000000101011111
0000001100111111
1111111010111011
0000001000001100
0000000101111100
1111111110011010
0000001010010001
0000000001001111
0000001110011001
0000000100000011
1111111101111100
1111110101000001
1111110101110001
1111111011111111
1111110010010010
0000000101110001
1111111001001100
0000000010100011
0000000011101111
0000000100001011
1111111110101100
1111110111101111
0000001101000111
1111111111010010
0000000001110111
1111110011010100
0000000110000101
0000000100110010
0000001110100011
0000000100101101
1111111100110101
1111111011111011
0000000000000110
1111110011010000
0000001111111110
1111111110111000
1111111010010011
1111111101100010
0000000110001100
0000000100111110
1111101101101000
0000000011000000
0000000110000111
1111111000100010
1111111111011010
1111110110110011
0000001101000111
0000000101100101
1111111101111010
0000001000101101
0000000011110000
1111111110110100
1111111101001110
1111101111110111
0000001010110100
1111111111100111
1111111011100110
1111111110101001
1111111110110000
1111110001000111
1111110000011111
0000001001110110
0000010100010111
1111110010110001
1111111110001001
0000001000110000
0000001010010010
1111111101100110
0000000101000010
0000000010100101
1111110110011011
1111110101010001
0000010000010100
1111110000001000
1111111110011011
1111111011100011
0000000001101100
1111100110010101
0000000011010001
0000001111111110
1111111011010001
1111110011000011
1111111011011101
0000001010111111
0000001100001100
1111110001010101
1111101100101101
0000000100001111
1111111001111111
0000000101110010
0000001010110111
0000001000000110
0000001001111010
0000000000001000
0000000101101010
0000001000111100
1111111010010000
0000000011101011
1111110100111101
1111110110010010
0000000001111000
1111111111100110
0000000001001101
1111111111100110
0000001010101000
0000001101000111
0000000101100110
0000010011010110
0000001000100000
1111111101010011
1111111100001000
1111111011011001
1111111110011001
1111101010101011
0000010011011001
1111111011101100
1111111110001110
0000001000100100
0000000011110001
0000001001110101
0000000001000110
1111111111110100
1111111000101010
0000000101001111
1111111110111100
0000000011001101
0000000110010000
1111110001101010
1111110100101011
0000000100111011
1111111011101111
0000001010010110
1111111001111110
0000001100100111
1111110111001011
1111110110100110
1111110010011100
0000000110101000
1111111010100110
0000000110011100
1111111100011101
1111110111011101
0000000000111000
1111111101100000
0000001001110101
1111110100100110
1111111011110100
0000000100111100
0000000111101100
1111111100101011
0000000011100101
1111110000101111
0000001110110001
1111110110010010
0000010001000100
0000000010001111
1111110001010111
1111111010110000
1111110011010101
0000001000011001
0000000000111101
1111111111110101
0000000111010110
1111110011110101
0000000011011110
0000000101110010
0000000101111111
0000000100001111
0000000101010100
1111111010110111
1111111000110011
1111110110010101
1111111010010101
1111111111001011
0000000011011010
1111110010011110
1111111000011001
0000000111110000
1111110110010101
1111110110101011
0000000001010000
0000010001101010
0000001000011101
0000000100110110
0000000000110001
0000001010011011
0000000001100100
1111110110010001
0000001111010010
1111111010010110
0000001010001111
0000000101010111
1111111101100111
0000001001001011
1111111010011111
0000000100011010
0000001010101100
0000000010101100
1111110101000100
0000000001110110
1111110011000010
1111111110101100
0000000101001010
1111110110001100
1111110101001001
0000001010100100
0000001001001001
1111111100111011
1111101111010100
1111111010101001
0000000101011000
0000000001001100
1111110010111101
0000000001100001
1111110110010100
0000000000000110
1111110010010001
0000000101100011
0000001000110001
0000000111111101
0000000011100011
0000001011001001
0000001000000101
0000001110001100
1111111111111011
0000010100100100
0000000011110101
0000000100010011
0000000001010110
0000010100110010
1111110101011010
0000000111100100
0000000111010111
1111110110000110
1111110001100011
0000000011001010
1111110101100110
0000000011010001
1111111110010010
0000000111001101
1111101010001100
0000001000110110
0000000110101010
0000000011101101
1111110010110110
1111110010101100
1111110010100011
1111110100100001
0000001100011111
0000000111010000
1111110011011010
0000000111011000
1111111000011100
1111110000110011
1111101011100111
1111110111001101
1111110011001010
1111101111111010
0000000101100110
1111111001001100
1111111010011111
1111111001111000
1111111111001100
0000000100110001
1111111100100010
1111111011010011
1111111110100110
0000000001111000
1111111101000011
1111110011011001
1111111111001010
0000000010011001
1111110101000010
1111111111000010
0000000000000011
0000001010001100
1111111101000001
1111111011100111
1111110000100111
0000001011110010
1111111010100011
1111111011110000
0000000000011110
0000001001110010
0000000000001110
0000001101011001
1111111011000110
1111111100000011
0000000010110001
0000001011110000
0000000010001010
1111110010111010
0000000011100011
0000000101010111
1111111011111111
1111110110100111
0000010011011101
1111111101000110
0000001100110001
1111111100010111
0000000010111010
0000000101001110
0000000000101111
1111110111010110
0000000010100110
0000000000000100
0000001100000001
0000001010100101
1111110110010110
0000000010101000
0000001010011100
1111111111110000
1111111001000001
0000001010110010
0000000111100001
0000000101100110
0000010110010100
0000001001000111
1111111110010110
1111111110111100
0000001111001011
0000000000010110
1111111000000110
1111111011100100
1111101111111100
1111111100101010
1111111111110011
1111111111010100
1111110010011111
1111111011010111
1111110110000111
1111111010100111
1111111110000100
1111111000110111
1111111011011110
0000000111110111
0000001101101010
1111111100100111
0000001100110011
0000001001000000
0000000100101111
0000000001101011
1111111001000011
0000001010011011
1111110111010101
0000000000101000
1111100110111111
0000000001010000
0000000000101110
1111111101010010
0000000001110110
1111111010010100
0000000011001001
0000000011001000
0000000001111100
0000000100100100
1111110101010110
0000000101010000
1111111111010010
1111110010111010
0000000000001111
1111111010010001
1111111011011110
0000000001111011
0000000000111010
1111111000001110
0000000001101010
0000001100101001
1111110111100110
1111110110001100
1111111100011000
0000000110000011
1111111110011001
0000000100001100
1111111000101001
1111101101100010
0000000110010010
0000010011101100
1111111000011101
1111110011110011
0000000100111011
1111111001110001
1111110100101110
1111110000110100
1111111110110000
0000000010011011
1111100010100111
0000001010001111
0000001000001010
0000001011000010
1111111000001000
0000000011100111
0000001101111011
0000000111100000
1111111100100011
0000000111100100
0000000000110101
0000001001010110
1111111001011111
1111111111110110
1111110010111101
1111111000101010
0000000011001001
1111111001000100
1111111001001010
0000000101011101
1111111001101101
0000000011011111
1111111100110000
1111111011110001
1111110100011001
1111110010011100
1111111001010110
1111111101011100
1111111111011110
0000000110011110
1111111101101111
1111111001000101
0000000011110000
1111111110100011
0000000101000011
0000000001101100
1111111011101011
1111111100011010
0000000110110111
0000010001000000
0000000100001110
1111111110110101
1111111001100001
0000001000010010
0000000100110100
1111111101101011
0000001010010011
0000000011110111
1111110011011001
0000001001101001
1111111100111110
0000000110110100
0000001011011011
0000000011001111
1111111101101100
1111111100110010
0000000101100100
0000000000010110
0000000111001011
1111110111000111
0000000011001101
1111110010011110
0000000011011000
0000001010100111
0000000111001000
1111111100000000
0000000011010011
0000001001010011
0000001101101110
1111111000100100
1111111110110110
0000001000111111
0000000100111101
1111110000100010
1111111100110100
1111111110101111
1111111001101101
1111101000101011
1111110101111100
1111111011000001
1111111010010011
0000000000010010
1111111110101111
1111111110010110
1111111111101111
1111110010111000
0000000101000010
0000000110110010
1111111010111010
1111111101001110
1111111011100010
1111110111110101
0000001011110111
1111111010001011
1111111111001111
1111111101110001
1111111110000010
1111111010111010
1111110011101010
1111110111011010
1111111100000101
1111111000110101
1111110111000111
1111111100100100
1111111011011001
0000000010101001
1111110110011000
0000000011111110
1111111111111011
0000000100000111
0000000111011011
0000000011010000
0000001000001011
0000000100101101
1111111000111010
1111111011000010
0000000001011011
1111111100101001
1111100100011110
0000000011011110
0000001011011100
0000001000010010
1111111010010110
1111111010010101
1111110111000100
1111111110001101
1111111010011001
1111111111000111
1111111000011100
1111111010011111
1111111001101001
1111110101011010
0000001110000001
1111111100001110
1111111010111011
0000001010110000
0000010111100101
1111111100101110
0000000001010000
1111111110010101
0000000111010100
1111110100011010
1111110110110010
1111111100100011
0000000000001110
1111100111011010
1111111011000111
1111111111011100
0000000111100011
0000000111111111
1111110100110110
0000001000011111
0000000101100111
0000010001111111
0000000100110100
