memory_initialization_radix=2;
memory_initialization_vector=
1111111000000100,
100111100,
110010010,
1111110100011001,
1100111,
10000000010,
1111111110111111,
1111111101111100,
10001000101,
1111111011011100,
1111111101110001,
10010,
1111111010100100,
1111101110001000,
111011001,
1111111110100001,
11000100,
10001,
1111111110100111,
1110110001,
1101101011,
1111110111100100,
1111111110110011,
1111110101000111,
1111111001101111,
1101000011,
1111111101010101,
100110100,
1111111110010000,
1000110,
1111111000000110,
1100000110,
101011101,
1111110110100101,
1111110000100011,
1111110001101001,
11101001,
1101111,
1011001101,
10001011,
1110011110,
1111101001101100,
10000110010,
1111111100110110,
100010111,
1110001100,
1111101110101111,
1111111110111101,
1010110,
1111111111010000,
10010,
111110,
1111110011000010,
1111110001100001,
1111111000001101,
101100,
1111111011101010,
1111110000001000,
1001010,
1111111011101011,
1111111111111100,
10000100111,
1110000,
1111101011010100,
1111111001000101,
1111110100111001,
1011100110,
1111111011000101,
1111111100100101,
1111110110110000,
1111111110101111,
100011011,
1110111010,
10101110,
110111100,
1111110111110110,
111100110,
10001111111,
1111111110001000,
10001100110,
1100101011,
1111111110101111,
101001011,
1111110100111111,
1110111,
1111111101110000,
1100000011,
1111111101000110,
1101000,
1111111110011011,
101000100,
1111110010011011,
10101101,
1011001011,
1110100111,
1100000001,
1000001100,
10,
1111111000100000,
101100110,
1111001110,
1000111010,
10100011,
100010111,
110101100,
1111111001101100,
1111111010111100,
1111110011101011,
110010011,
1111111111010011,
1101110101,
111110100,
1111111101101111,
1011111011,
1111111001100101,
1111111111001100,
110101110,
1111110000010110,
1001100001,
10010111000,
1111111101101001,
1111110111110111,
1111111001101100,
1111111111101100,
1111111011000110,
111000111,
1000100000,
1111111100011001,
1111100110110001,
1111111100000110,
101011110,
1001000101,
1111111101,
10011,
1111110100101011,
1111101,
10100000,
1111110111111111,
1111111101000010,
1001100011,
1110001110,
1111111110101000,
1111101111110010,
1111110111010011,
11010,
1111111100000010,
1111111001101010,
1111111100101000,
1111111100011011,
1111110111001010,
,
1111111010111011,
1110101100,
1100010110,
1011000100,
1111111110111110,
1111110011111100,
100011110,
1111110010000110,
1111101000011010,
1111111110000010,
110001111,
1000010011,
1111111100010001,
1111110101001011,
1111110000000111,
10010001,
1111111001100011,
1111100110101000,
1111110001001000,
111101000,
1111110001000001,
1111111010011110,
1111111000101001,
1111110000111100,
10011001000,
1100010,
100000100,
1111111111010000,
101110001,
11000001,
111111101,
1010010,
1111111000010100,
1101000,
100111111,
1111111101001011,
11110001,
1111111001001110,
1111110111110010,
1001001100,
1111111100110110,
1011000010,
1111111100100100,
1111110110011100,
1000011000,
1111110101010101,
1111110111001001,
1111111101101111,
1111111100001110,
1111110100010110,
1111111001001011,
100111110,
1111111001001011,
1111111001100101,
1111101111011101,
1111111100110100,
10010111111,
11100110,
1111111111111001,
1111111011001101,
1110110101,
1111111011100101,
110010100,
1111111011000001,
1111100001011110,
111111000,
110001110,
1111111111010100,
1111111010010101,
100110,
110101111,
1111110010000101,
1111101101100101,
1111110001000010,
1110100001,
1111110001001111,
1011010,
1111101111000100,
10010100011,
11110001,
1111111110110111,
10010101010,
1111110011111010,
1100101,
1000000101,
1111111110011110,
1111111100000101,
1111111111111100,
11100001101,
110010100,
10101000,
101111,
101001100,
11111101,
1111111100100000,
110101,
1101011001,
1000000111,
111100,
1111111111000100,
1111111110110010,
1111110111110110,
10010001,
100110010,
1111111110001011,
1010101010,
1111110101001010,
1100000100,
110110010,
1111110001011101,
10001100,
111101110,
1111101110000100,
1111111101011011,
1101111,
110010110,
110011,
110000000,
1111110011011100,
1011010001,
110111001,
1001001010,
1111110111100010,
11101010,
11111110,
1111111010010010,
1011100000,
10011010,
1111111000100010,
1111110111111100,
1010011,
1011111101,
10001001000,
110111,
1111111001100111,
10110111,
1011,
1111111101000011,
1111111000011101,
1111111100100110,
101111100,
1111111000110111,
1111111010110000,
100101001,
101001011,
1010110,
1111101100111100,
1111111101000001,
1001111111,
1111111111100110,
10110,
1000010000,
100000000,
10010011,
1111111011111110,
1111110110111110,
111011111,
1111111001100100,
100001000,
100011001,
1111111100111010,
1111111000100010,
1111000000,
100011001,
10111000,
110011101,
11111100,
11110,
1111101111011111,
11011111,
1111110011101000,
100100000,
1111000,
11110100101,
1111111100100010,
11110,
1000101001,
1111101000001111,
1111010,
1111111110100100,
1111110110111000,
1111110100100111,
1111110111011001,
1111010001,
1111110100001100,
1110001,
1111111001100110,
1111110101001001,
1111111010011011,
100010,
1111111100100011,
1111111110101110,
11100110,
1111110001111001,
11111101,
111110000,
1111110010000011,
11000111,
1111111001110010,
1000110011,
10001010010,
1111111111000000,
1100110110,
1111111011010100,
110010000,
110111,
1111111101110000,
1111111100100000,
1111111110011101,
1000000010,
1111101111111110,
1111110111110010,
1111111111110000,
1111111111001010,
11010101,
1000010110,
10001110001,
1111111001000100,
1111110111010000,
1111111011101111,
1111110100010100,
1111111011001100,
110011000,
1110111,
1111111000011100,
1101001100,
1111111101111110,
10011011,
110010001,
10101001,
1111111010111000,
1111110011000111,
10010011,
1111111101100110,
1111110101001110,
1111111011110011,
1011010,
1011110000,
1001000100,
1001011001,
1111111100011010,
1110011100,
1111111110100110,
1001100,
100110000011,
1111111010000110,
11010001,
1111110100111110,
1111111110000010,
1000101100,
1010100,
1111111011110111,
1111110111100010,
1111111101010000,
1111111010001101,
1111111000000101,
1111110100100110,
10010,
1011100011,
1000000111,
1111111000011001,
1111110000001011,
1111111011101111,
10111110,
1000000101,
1001011010,
1111110111001110,
1111111100100101,
1111111111100000,
1111111110111101,
1111111100111011,
1111110101101010,
101011,
100011110,
11011000,
101101010,
1111111111101100,
1111111001000000,
111000011,
1111111111110110,
1111111000100011,
11000,
11,
1111111100011011,
100110110,
1111110011110000,
1111110110100011,
1111111110100111,
1111111011111101,
110101110,
1111110011111101,
1111111011010111,
111000000,
1111101101010110,
1000011110,
1111100,
1111111110101011,
1101101,
10010011000,
100011001,
100100010,
1111111001111101,
1111111000110010,
1111111101111001,
1111111000110000,
1111111110111000,
1100110111,
1101101001,
110110100,
111010100,
1111111100000100,
1010000101,
1111111101011110,
1111110101110011,
1111111101110010,
1111111000111110,
101100000,
1111110110000010,
11011100,
110001101,
1111111011111000,
1111111000010011,
1111110001001001,
1111100001,
1111110100000100,
1111110001100011,
10001111110,
1111111110111110,
1111101110100001,
11011111,
1111111011111111,
100001010,
1111110110101100,
110100000,
1111111011000111,
1111111011110011,
100001,
100101001,
1111111111011001,
101101111,
1111111111111010,
10101001,
1111111000100101,
1111101110100100,
1110011101,
10100000100,
1111110111011111,
1111110011011110,
101001100,
1001110001,
101111111,
1111111100011001,
1111111010111100,
1111110100001001,
1111110010011101,
1111111100100010,
1111111100111111,
1111110000010011,
110111111,
1111100110,
1111101111001111,
11110010,
1111111000000110,
1111111110100000,
110101011,
10001000111,
10100100,
1111111110111101,
1111110110100001,
100101010,
100101010,
1001101001,
1110000,
1010101100,
101101111,
100010001,
1111111011111001,
1111111001001111,
10101010,
1111111000100111,
101100010,
1111111110101000,
1001111110,
1111110011111101,
1111111111111010,
1111110011010100,
1111111010010010,
1111101111110101,
1111111100010110,
100100110,
1111111010110101,
1111111001100111,
11111000,
110000011,
1111111101011111,
1100110011,
1111111110000110,
100111010,
1111111101111111,
1111110100011001,
11001001000,
100110100,
1111110100111010,
1111111010100101,
1111111100010101,
1111110100011101,
1111111010101101,
1111111100000000,
1111111001001001,
1101001110,
1111110111010000,
1111110010001101,
1111110110101010,
1100010110,
1111111001001100,
1111110110011111,
111100111,
10001101101,
1111111110101011,
11110001,
1111111100100001,
1111001101,
1001011,
10000101100,
100001,
11100011,
111101010,
1010000100,
1001011110,
1111111011101001,
111100,
1111110100001100,
1111110100010001,
1001001000,
1101010110,
10010001,
10010001,
1111111000010011,
1111111001011000,
1111111010110111,
111101101,
1111101011000001,
1111110110001010,
11101110,
1111111101010100,
1111100101010111,
101010011,
1111111110011011,
1010111100,
1111111100111001,
1001001011,
100011101,
1111110110110100,
1111101101011001,
1011001,
11011101,
1111111000011111,
11101010,
10000000,
111010000,
1111111111001100,
1001001,
1111111000000110,
1001100111,
11101101,
1111110010100110,
1111111100111001,
11010,
1111110010110100,
1110100100,
1000000111,
1111111011110110,
110011011,
1111110001001100,
111010,
1111111110001100,
1011011100,
1100011100,
100110100,
111101111,
10000,
1111111111010110,
1100111000,
1000101010,
10001100,
11001000,
11,
1111101111001000,
1111111110011111,
1111111100100110,
1111111010010001,
1111111011010000,
1111111001111011,
1111111111111001,
1010100,
10011011101,
1010101,
111001001,
1011001000,
100101001,
1111111000001011,
1111101101101111,
1111110101010111,
1111111110101100,
1111111101000111,
1001111001,
101000000,
1001101110,
111100011,
1111110101010101,
1111111101010010,
1111110000110011,
1111111010110000,
111101001,
1000101010,
1111101111101111,
1000001110,
1010011000,
1011101,
1101111010,
1111110011110101,
1100111011,
11100,
1001001111,
1111110100101111,
1111110111111110,
1111111111101110,
1111111011110000,
1111111011001001,
1100100,
1111111000111001,
1111110001011111,
1111111100101010,
1010100100,
11111111,
111011100,
1001111,
1111111111110111,
11001101,
1111111010101001,
1111111110001111,
1111110000000010,
1111110001110000,
10100111010,
1111111001100000,
1111111001010110,
1111111000010100,
110100001,
110010011,
10110111,
110001011,
10000011,
1111110011100111,
10010010010,
1011101001,
1111110111011111,
10111101,
1111111001111001,
1001011011,
1111111111111101,
1111111011000110,
1000110011,
1111111100111101,
1111110111000010,
1111110000001110,
100100101,
1101101111,
1111110111111010,
1111110011110010,
1111111011010100,
10110000111,
1111110111001101,
1111110011100001,
10000000,
1111101101100001,
101111100,
10010,
11100011,
111010010,
11101001,
1111111011101111,
11111011,
101100010,
1111111101101001,
1111111011010101,
1111110010101011,
1111000,
1111110100100101,
1011111101,
101010001,
1111111011000111,
1111111000110101,
1111111110010110,
1110011010,
11100011,
1111110100110001,
100001011,
11000,
111111110,
100100011,
1111101110110011,
1111110110110110,
1111111101011101,
1111110011001111,
101000100,
1111111010101101,
1111111101100011,
1111111101011000,
1111110100000000,
100000000,
11000101,
1111111100001001,
10001000100,
111101,
1111110101000001,
1111111011101101,
1100111,
1000011100,
1010001100,
10000010100,
10000101100,
1111111100110101,
1100011000,
10010101000,
1111110110001001,
1111101011101101,
1111000111,
1000110101,
10000011000,
1001111011,
1111101,
110011100,
1111111001001111,
110101000,
1111101110001011,
1111110010001101,
10100,
1111110001100000,
1110101000,
1111111000000100,
1111111000111010,
10101100,
1111111011110000,
1111111011011000,
1111101101100101,
11110111,
1111101100110011,
1111110111001001,
1001001010,
110100010,
101001101,
110000010,
1000111010,
1111110111101011,
1111111110100111,
1111111101101000,
1011111,
1000011111,
1111111010110010,
1111111111011111,
1111111111101101,
1111110001010010,
1111110011111001,
1111111110011010,
1000100,
11011010,
1111111001111100,
101111000,
1111110100001101,
1011000,
100000010,
1111111000010101,
1111111101110001,
1111111001011010,
1111111110101110,
101000011,
101001110,
1011000,
1111101001101100,
1111111110011011,
11010111,
11101001,
11001111,
1111111110101010,
11010101,
1111111010111010,
1111,
1101001100,
1111110101001001,
1111111011101101,
1111110110010011,
1111101010,
1111101010101010,
110100101,
1111111101001100,
1101011110,
1111111,
1100000,
10111100,
1111101111101100,
110000110,
1111111000011101,
1111111011011000,
1111111100100011,
110000010,
10010000000,
1111110110111010,
10101011000,
1011011,
1101000,
10000101101,
1000010101,
1111111001010011,
1111111011010100,
10000110001,
1110110,
1111100,
1111110101010010,
101111000,
111000000,
10100100,
111111000,
1111111011010011,
1111110100000111,
110111100,
1001110111,
1111111101110011,
1111111010010111,
11001100,
101001111,
1010101,
1111111011010110,
1111111111000101,
1111110001001010,
1111110111101010,
1100001,
1111111010110000,
1111110010010010,
1111111110000100,
110010010,
110011000,
1010110,
1111111011110111,
101110110,
1111111111101011,
111100,
1110010000,
10110,
101100010,
1000111,
1111111100010000,
1111111001010010,
1111101110011011,
1111111011000100,
100101001,
1111100001001000,
110110101,
1111111101101001,
101001,
111101000,
1111111101011101,
1111111001101111,
1111111100101001,
1001110111,
1011011,
100001101,
1111111100001101,
111111,
1111110001111100,
1111110011111111,
1111110010100100,
10011011,
1111111011100101,
1111111010011010,
1111010010,
1111000,
1111111101111101,
1110011010,
1111111010111110,
1111111010011100,
10001111,
1111111110000111,
1111110110100100,
1001100010,
1111110111000111,
1111111111111001,
1111111111100100,
1100011100,
1111111100100010,
100011100,
1101100,
101110000,
1111111101011111,
1111111100101110,
1010110100,
110001101,
1111111101110011,
1010111,
10100001011,
1111111001101100,
1010101000,
1010000,
111111000,
111110,
1101000011,
1111111011001001,
1000001111,
100001010,
110110111,
10111001,
1111110001110001,
111010000,
1111111101110011,
1111111000000101,
1111111100111000,
101100001,
11,
1001000101,
1111111011001011,
1111111101010111,
100011101,
1111111101001110,
1111111011000110,
1111110101100010,
1010001010,
100010001,
1000000100,
1111101000110010,
1111111100000100,
1111110001101101,
1111111111010111,
1111111010110000,
1111111101010100,
110111110,
1111111001010110,
1111110110010100,
1101001000,
1111111011011001,
1111110010010100,
1111111010111011,
1111110011111010,
1111111011110001,
110001,
1111110,
1010100100,
11011011,
1011111,
1111111001101111,
1111110111110010,
1111110100011001,
10111111,
10000,
100100110,
1111111110001101,
1011100,
1100000100,
1111111000001100,
1011110,
10100110101,
1111111101001000,
1011001111,
1011111110,
101000,
1111110001101111,
11000101110,
1111110110101111,
1111110100101000,
11000111,
1100010,
11110100,
100110000,
1111110101110000,
1111110110001010,
1111111010001000,
1111111000101011,
1111111100010100,
11111,
10000101,
1111111111111000,
1111111000111010,
1011111010,
1111110111101111,
1111110101011010,
1111111000010001,
1111111010011010,
1111111111101101,
110011010,
110100100,
1111110101111010,
100111,
11000011,
101101110,
110000100,
10011001001,
10011,
1111110110111000,
100011101,
1101111,
1111101110000010,
1111111110100101,
1111111100110101,
1111110001100111,
100011010,
1001010111,
1111110010001101,
1111111011111110,
1111111111111011,
110000,
1111101001111000,
1111111100101011,
1111111101101101,
1111111100110101,
1111110001,
1111110111101000,
100101101,
100011110,
1111111010001110,
110101100,
1101100,
1111110101100011,
110001,
1101110,
1110011100,
1111111111001111,
1111110101101011,
1000111111,
10100010,
100101100,
101011111,
1111111101100011,
1111110101101101,
1010011001,
101111001,
1111110010110010,
1101110,
1111111011111110,
1111111110111100,
1111110111010001,
1111110101011110,
1111111100011110,
1111111010001101,
10011011100,
100110110,
1111110011001111,
110100000,
1011001,
1110011000,
1001110010,
1111111010101011,
1111111110110011,
1111101111001101,
110001000,
1011000000,
1111111001001000,
1111111110100000,
1111111011100010,
10011000,
1111100100101101,
110110001,
11111101,
1011100,
1000001010,
1111110110101100,
1111111011000000,
10111,
1111111011011000,
1111111000011010,
1111111001111011,
1111110010100111,
1111111110110000,
1111111101010000,
1010110,
101,
1111111110111101,
101011101,
1111101111101101,
111001010,
1111111000101010,
1100110111,
10111111110,
10111111,
1111111101010011,
1111111001110000,
1100101010,
1111111110010100,
1000001000,
1111110110010000,
101101000,
10100001,
1111111110111111,
1000101,
1111111000010011,
1001101,
1111110001100000,
10100100,
10110101,
1111110111011110,
11101100,
110011100,
1111111011100011,
1010001,
100101110,
1111111011010010,
110110110,
1111110111100101,
1111101110010110,
101110001,
110001011,
1111110111100011,
1111111111111101,
1000110001,
1001010001,
1111110110111101,
1111111111011010,
101011001,
110000011,
11000101,
1111111111010101,
110110110,
1111111100101110,
1101010,
1111110100011000,
110100000,
1111111010010001,
1111111011001001,
1000,
1010010001,
1111110011101011,
1101101110,
1111110000001011,
1111101101,
1100010,
1111110110011110,
11110,
1111110001010111,
1000111111,
1111101101101100,
1111111010010001,
1111110001000001,
1111111101010011,
1010101,
1111110111101111,
100011011,
1111000000,
1111111100010000,
1111110011011010,
1111110111011101,
111111,
1111111011011000,
111111001,
1111111101011101,
1110110000,
1111111011001010,
1111111111010010,
1110,
100100111,
10110000,
100011110,
1111111101101011,
101011010,
1001011011,
111110,
1111111100101100,
1111110011000110,
101000011,
1111111001111100,
1111111111000001,
1111110100000011,
1110101,
1111111000101101,
111110011,
1111111001101010,
10001101,
100000000,
1110010,
1111110101001100,
1111111110010001,
1111110001011101,
110110110,
1101010010,
1111111110101001,
1111110011110001,
11011011,
1011110010,
1111111000,
111110011,
1111111110101101,
10011110000,
1111110110100001,
1111111111000100,
1111110110011000,
11111011,
101011001,
1111110010111101,
10011100000,
1000010,
100100,
111111100,
111111011,
11100111,
100110001,
1111110011100010,
1011001,
1111111101110001,
1111111001100010,
1111111111111100,
1111110010010000,
1111110110010011,
1111110100001001,
11000100111,
10001001,
111001110,
1110010010,
100010,
110010100,
1111111001111010,
1111101110110000,
1111111101110101,
1111111111011001,
10001110,
10010010011,
11010,
1111101110100000,
111110000,
1111111101100101,
11110,
1111111100100111,
100011110,
1111111011011101,
10000001,
1010001001,
1001101,
1111001,
1111111111011100,
1111111000100101,
1111110011000010,
1111101101111011,
1111110101110111,
1111111101010001,
11001010,
1111100110100110,
1111111010110101,
1111110100110001,
100110101,
1000110111,
1110010,
1111110010011001,
1111111100111111,
1001011011,
1111111111100001,
1001001,
1111110011100000,
11111011,
1111110010101010,
1111101101100111,
1111111100111010,
1011101,
1111111000100100,
100000111,
1111101110010001,
1111110011101100,
1011110111,
11001100111,
10010110110,
11000000,
1111111111110011,
101101001,
1111110110111001,
1111110011011101,
101110011,
1111111111000110,
1001000101,
1111111011100011,
1111111101010010,
1111111010011000,
1111110101100001,
1110000110,
1111110010110100,
1111110110100000,
111010101,
1111110110111110,
1111111101000101,
10000101,
1111110100001001,
1001111111,
1111110111111100,
1111110011011111,
1111110111110111,
100100110,
10001111011,
1111110101101111,
1111111101110101,
111111,
1111111110110011,
1111110010001011,
1111110100100010,
1110110010,
101110001,
1111110011001000,
10010101110,
10011101,
1011011110,
1111111111111011,
1111111000000110,
11000100,
1111110110101101,
1111111010110001,
1111110111010101,
11111,
110111100,
1111110100010111,
1111111001100111,
1111111111101100,
1001011100,
100000,
1111111000000011,
1111110010010001,
1111110101110110,
1111101110010101,
1111111101010111,
1111111100010111,
100011,
1111111101100110,
1111110111001110,
10000110111,
1111111100100110,
1001000,
1111110110101100,
1111110011000111,
1111111100110000,
101100110,
10001001001,
11010100,
1111110101001111,
1111111001011000,
1000000110,
1010001001,
10100011110,
1111101011000000,
1111111111000111,
11011101,
1111110101100101,
101000101,
1111110010110000,
101000111,
1111111001100010,
1111111011010000,
1111111100110000,
1010101101,
1111110000100111,
1111110111010110,
1111111101010110,
1111110011000001,
11110001,
11010,
1111111000010010,
1110000011,
10101101110,
11100101,
1001101110,
10011110,
11010000,
1011111101,
1111110011001000,
100000011,
1111110101100011,
10111011011,
1111101111110111,
1111111101101100,
1111111010010100,
110001101,
1111101111011000,
1111110101111101,
110110010,
1010010000,
100011010,
1111111111110011,
1000011,
10,
101101011,
1111001011,
1111110110000101,
111011,
1000111001,
11010101,
10111111,
1111111111101001,
1010101010,
1111110110110100,
11101,
1111111101010000,
1111101111101100,
10010100,
10010000010,
1000101111,
1111110111110110,
1111110011011011,
1111110111001101,
1111101110101101,
1111111010100010,
1111110100011011,
1111111011011101,
1111110110110101,
1111111011001111,
1111111001001000,
101001001,
1111111110101111,
10010000,
1111111001010011,
110000111,
10000100,
1111111011111110,
1010110010,
1111110111101101,
1111110101010000,
1010010101,
110110111,
1111110101010101,
1111111111000000,
1111110010111011,
1111111111000100,
1101000,
110101010,
1111110010011110,
1010011011,
1111111101110000,
1101110,
1111111110100110,
111101010,
1111110001000010,
1111111011110110,
1111110101111000,
100011101,
111100010,
1111110110001101,
1001110100,
10110001111,
1111111110100100,
1101100110,
10010000,
101110001,
1101011110,
10001010111,
1111111001011100,
1111111001010011,
1111111001011000,
100001,
101011100,
1111111111110100,
1111111011000011,
10010001,
1011000,
1111111110011010,
1111110110100111,
101100011,
1111111101001011,
1111111101000011,
1100100011,
1111110110000001,
1101111110,
1111111111000000,
1111101110001001,
1110001101,
10011101,
1111101111110011,
110100,
10110010,
10001001101,
10011101,
1111111100111110,
1111111110111111,
1100011101,
1111111001111100,
1111110100110001,
1111111111111001,
1111101110111101,
1111111110101110,
10001010,
100101011,
1111111011011011,
1111110100010000,
111101101,
1111110100110000,
1011001110,
110001100,
1100100111,
1111110011000100,
10001101,
1111111110000001,
101110111,
1111111001000010,
101011111,
1111111101011111,
100011101,
1111110100111001,
101000011,
1110011110,
1111111111000000,
10001111,
1111110100100111,
1111110101010010,
1111101110011000,
100100000,
1111110011001111,
1111110010101100,
10000101111,
10000101010,
1111111101001011,
1111110111110100,
1010100000,
111101111,
111100110,
100110001,
10101000,
1111111011001001,
1111111111110000,
110101110,
100001,
1111101001010110,
11101110,
1001111110,
11,
1111111111101111,
1111111100011011,
1001000,
1010110000,
1111111010001011,
1101101001,
1111101010111001,
1111110111100100,
1111110100100010,
1111111111111101,
1011111001,
1111111100000110,
1111111000010011,
1111111110001001,
100110111,
1111100111110011,
1010100001,
101010,
101101011,
11011111,
1101101101,
1111111011001111,
10000101011,
11001110100,
10110001,
1111111110011110,
1111110011001111,
100110,
1111111000101110,
111110111,
1111111001111101,
11111100,
1111111011110100,
1111111111011001,
1001100010,
10,
1000101010,
1111111000101110,
1111111010100001,
1111111111000110,
1111110000110010,
110001000,
1111100111011110,
1111110110010100,
1101,
101100,
1111111010111111,
110000101,
10110000,
1111111101010010,
11101,
1111111001101100,
1111111000010010,
1111110001111110,
1111110010111001,
1111111010100111,
1111111100011011,
1111110101100011,
1001100111,
11011111,
1011110,
100111100,
1111100,
1111101110100001,
1111110111100111,
101011101,
1111110111111001,
101101111,
101010110,
1111110110010110,
1111110100110011,
1111111110100000,
1011001000,
1111111000100111,
1111110101101110,
1111111110101010,
1011101100,
111010011,
10001010001,
10011111110,
1111111011100100,
110111101,
1111101011011001,
1111111011101010,
1111111110100011,
1111111000101100,
1111111100000011,
1111101111010100,
1111111010110001,
110110000,
1111110110111010,
11000011,
1111110110101111,
10010000,
1111111101100000,
100101,
1111110100100010,
1111111111101001,
1111111111101111,
1101001101,
1111110111000110,
1111111101111010,
101100,
1111111010001001,
1111111110011000,
1000101,
1111111101111000,
110011,
1110001100,
1111110111110111,
101010011,
1010011000,
1111110100010001,
101001101,
110000111,
1111111111010010,
101111101,
10111101101,
1111101010000001,
1111111100101010,
1111111110110100,
1110110010,
1111111001110110,
1100001110,
1111111001111011,
1111111001110001,
101101000,
110001111,
1111111111100000,
1001110001,
101000,
111110100,
1111110111001100,
1111111010000111,
1111111101001101,
1101100,
10111001,
1111101101110111,
1111110110010011,
110000001,
1001010111,
1111111010001111,
1111101101000001,
11111111,
1111111100111011,
101101101,
1101110,
1111110101111011,
1001101100,
1111111100110010,
1000010011,
1001100000,
10011001,
100001100,
1111111111000100,
1111111000000000,
1111111110100110,
100010001,
1111111001001111,
1111111000001001,
1111111100000011,
1111101110110100,
1000110,
1111111101111101,
1111111000100100,
1111111110101110,
1111101111011101,
1111111111111000,
1111111011111101,
1111110011111000,
1111110110001100,
1001010100,
1111111101001101,
1111110101011110,
1111111001001110,
1111111110010100,
1101101110,
10001001000,
101000010,
1010000111,
10001,
1111111001100101,
1111101001110001,
11011111,
1000000101,
1111111001101011,
10110000,
101001001,
10001011101,
1110010010,
1111111100000101,
1111111110001010,
1111111010111101,
1111110010001100,
110010100,
101001101,
1111101111010100,
11000101,
1111110000111101,
1111111011001101,
1010101010,
1111111101001000,
100110010,
1111111001011011,
1001010010,
1010001100,
1111110010011101,
1111111011001100,
1111110001011011,
1111111111100001,
1111110100111001,
11111001,
10,
101101110,
1010011111,
1111111011101001,
1001000001,
1111111101111010,
1110101110,
1111111001001111,
1111110111100010,
1010001111,
1111111100101111,
1111110100011011,
1111110110100001,
1101100010,
1111111010111101,
1111110100000110,
1111111101001010,
1111111101111001,
1101101,
11010101,
11001000,
11110000010,
1111111110111100,
10110000,
1111110111011101,
1111111010000011,
1110010100,
1111111111110000,
1111111100100001,
11101100,
1011100111,
1111010111,
1111110011000010,
1111110011100110,
1111111001000111,
110110,
1111110111101001,
1111110110000101,
1111110110101010,
1100100111,
11000101,
10010000,
1001110010,
1111111011111010,
1111110011100101,
1111111111100111,
1111111111111101,
,
1111111000010000,
1111111101100001,
111001010,
1111110010000111,
1000110111,
10010000101,
10110000110,
1111110110111010,
110101001,
1000111000,
1111111111111010,
1101001100,
11101,
10001000,
1111111111100110,
1111110111100000,
1111111011011011,
1111111001110010,
1111111010110111,
1111111010100011,
1001011011,
1111111110000011,
1111111011010011,
101010,
1111111101100110,
110100011,
1111111100100011,
1111110110111110,
1001001100,
10100111,
1010010001,
1111110110110000,
1111101101100000,
101000,
1111111101001000,
1111111110110001,
1111111011111100,
1111110010000010,
111110111,
1011010000,
1111111011101111,
1111111001111100,
1111111110001000,
1111111001011110,
1111110010100101,
101011011,
10001110001,
110100000,
1000010100,
1111111101000000,
1111111001010110,
1001000011,
1111111110110110,
100110011,
110111011,
1111101010110000,
111101100,
1111101010010110,
1111111111000011,
1111110010101110,
1111110000001000,
1111110110110000,
1111111101000001,
100010100,
1111101100010101,
1111111110101010,
1111110111010110,
1100000001,
1111111011000001,
11001010,
1111110100101000,
1111110100111100,
111100,
1111110110101001,
10010011,
1111110100110000,
1111111100010110,
111110100,
1111110110000000,
1001010,
1111111101101001,
110010000,
1111110101100010,
1111111001011001,
1111111011010000,
1111111110000011,
10001,
1111110100000000,
1111111000,
1111110111101010,
1111111010001111,
101101011,
1111111110110000,
1001110111,
100101,
11110011,
11111110,
1011111,
1010100000,
101000001,
10001000111,
11111001,
1111111000110111,
10000101,
10001000111,
10001000,
1111111011101010,
1111111110001111,
1111111110011100,
1111110101011011,
1111110001110110,
11010000,
10010111010,
1111111011101000,
1111110110101011,
1111111010110110,
101111000,
1111110101100110,
101100110,
1111111000010110,
1011101111,
1111110011101011,
1111111011001110,
1111111111010110,
1111111100110110,
11101000010,
101000001,
11101,
1010011010,
101010101,
111001101,
1100101010,
1101,
1001011001,
1111111011001111,
1111111010110010,
1010100101,
1111110101011101,
1100000,
1110110010,
100111001,
1111111011011101,
111110000,
1001011000,
100000001,
1111111011010111,
1111101111110001,
1111110110010111,
1111111110010111,
1111111100110110,
10100101,
1111111110000001,
1111111011011100,
1111110010010110,
1110010110,
1001110,
1001010001,
100000000,
110010001,
110011011,
1111111111110010,
1111111001011001,
1111111110010011,
1111100,
101011001,
1000111010,
10000101101,
1111110101100111,
110101010,
1111111110100000,
1111110111010011,
1111111000,
1111111001111101,
1111110111001001,
110011111,
10100101,
1111110100001011,
10010010,
1111110101100111,
1111111001101100,
1111110000100101,
10101001,
1111110101001010,
10001110010,
1111111101110001,
1111101001101111,
101011101,
1111111110000110,
11101001,
110011,
1111111100101101,
1111110111001100,
1111111100001000,
11000001,
1101110011,
1111111011111100,
1111111100010011,
1001010011,
1111110011000010,
10111100,
1100010111,
1111111010000001,
1111110011001101,
1111110010100110,
10010100,
1111111000000110,
1111110100011001,
1111110100111111,
1111111010111110,
1111111001111110,
1111111110101010,
1111111111110011,
1111111011101101,
1111111010000101,
1111111001100010,
1111010,
1100,
11010101,
1101111,
1010001111,
1111110110100011,
1111111011001001,
10001,
11000,
11110,
1111111000101101,
1111111110000011,
1000110000,
1111110101010101,
11000011,
1111111111000001,
1111101000101110,
10000011,
110000101,
1001100,
1111101011111011,
1111111110010100,
111100011,
1111110111001110,
10,
10000100,
1111101001110001,
1111110001010111,
1111101011000000,
1111111010001110,
1101011,
1100000000,
1111101001111111,
1111110101110110,
101100111,
110000010,
1111110010001000,
1001001001,
110111000,
1111111010001100,
1111111100110001,
11011001,
1001010111,
1111110001101101,
1111101001110010,
1111110100000001,
1100110010,
1111111101001000,
1111111010000011,
1111010,
1111110111010100,
1111111011010101,
10011011001,
1111111101001011,
101111111,
11100100,
1111110100000111,
1101110011,
1111100101100101,
1111110101001100,
1111111010111101,
10100110111,
1111111101011111,
1111111101110110,
100010010,
1111111110101001,
1001100100,
1011010,
1111111110000100,
1111111011101110,
1111111111111011,
1111110000110101,
1111111101110000,
1111111011011000,
1110000011,
1111110111010001,
1111110101000011,
111101,
1111111111000001,
1011101100,
1111111110000000,
1111111111110010,
1111110011111101,
1111110100101011,
1111010001,
111000,
1111101100011001,
1111111100101010,
101110,
1111111010000110,
11011000,
1111000100,
1010101000,
100001011,
10011010111,
1001111001,
1111111000001101,
11100110,
1111111011001101,
101000,
1111110101000011,
100010110,
1111111111001010,
1111110100010001,
1111110111100010,
1111111100100111,
11001010,
1111111110011100,
1110110110,
100000101,
1111111100011001,
1010011001,
1111111011100010,
1110010,
1111110100000000,
1111110000101101,
1100,
1111111001100000,
1111111111001010,
1111111100011000,
1101100,
1010011,
101011001,
110000111,
100101001,
1111111000011010,
110011000,
1111111101100010,
1010101111,
10110000,
101010100,
1111110010001011,
11011001,
1111111101000100,
10100011,
1111111000000101,
1111101101110110,
10001010011,
1101010111,
1111110101111100,
1111111111000001,
1111100100,
1111111101010001,
1111111011011011,
1010111001,
10011000110,
1011001110,
1111111100100101,
1111110100010001,
101100011,
100100110,
1111111001000101,
1111110101011111,
1011011,
1111111110111000,
1111110111111110,
1111111001110100,
1111111110110101,
1111111001110010,
110100011,
1111110110110101,
111001000,
1111110101100110,
1111111110011011,
1111110111111111,
1111111111101101,
1100100010,
1010110,
1010111101,
1111101110100110,
1000111,
100011,
100001110,
11111100,
1111110101110010,
1110101000,
1000011011,
1111101101011111,
1111111010101001,
1011011110,
1111111000101010,
100101011,
1001111101,
1111101101110001,
1,
1111111111100111,
1101100000,
1001101000,
100101000,
110101100,
1111110010110101,
1111111111100111,
110,
1111111010111111,
111001011,
100000111,
1010010001,
100001000,
11101001,
1111111011010001,
10000001,
100000,
1111101100011001,
10001101,
1111110110110001,
10001100101,
11110011000,
110100,
111100110,
1111111101110101,
1000001010,
1111110001001110,
110010000,
1010110010,
111011010,
11101,
1111111111000001,
11110,
1111111001011010,
1111111010100101,
1111111011011001,
110010001,
1000100,
1111101101111010,
1111101011000101,
10100010111,
1111111011010110,
1111101111101000,
110001111,
1000,
1111111010110110,
1101010011,
1000110110,
100010100,
1111111100011111,
10010010,
111001011,
1111100111010011,
1111111001100110,
110101,
10011111,
1110001,
1101001000,
11110011,
100101000,
111110011,
1111111101010101,
1111111101001110,
1111111010101011,
1001011110,
10001010,
1111111100010100,
10000110110,
110111110,
1111111100101001,
1111111011001111,
111011010,
11010000,
110100110,
1110110111,
1001001001,
1111111010011001,
110000100,
10000101,
1111111001100101,
1111110010001010,
11011011,
1100000011,
1111111010100001,
110001110,
1111101101011110,
101011110,
1010010001,
1111011,
101010,
11000000,
1011,
1111111010111011,
1111111111110111,
10010110001,
1001010010,
101000,
1111111110000111,
1111111111001000,
1111110101101110,
1111110010110111,
10100100,
1100001110,
1111110111011001,
1100100,
1111111111110111,
1111111101101100,
1000101011,
1111110100100001,
1110101000,
1111110010011010,
1111100111100111,
110001100,
1111111111011010,
1111110101110000,
1111111001100111,
101100110,
1100100111,
11001011,
1111111111000111,
1111110111111001,
1111111110000101,
1111101100001100,
,
1111111001011101,
1111000100,
10001111,
1110001000,
1111111010101111,
1111111000111100,
11010000,
10010110000,
1111111001000001,
1111110100011101,
10010111000,
1111111110111011,
1110011101,
1111101010110110,
10000010111,
1111111100101110,
1111111100101111,
1111110000111000,
1111101101010001,
1111111010100001,
111110110,
1111110111101001,
10010111,
10100101111,
1100101,
1111110110110111,
10001000001,
1010110,
110011011,
10000011111,
1111111010101000,
1111111101101100,
10000110010,
1111111100001001,
1111101011,
1111110001010010,
11011110001,
1001101110,
1111111001010111,
1111111110010000,
1111111100011010,
111001,
1111111011000111,
1111111100100011,
1111110100111100,
1111110110000100,
111101110,
10001010100,
1111111010111000,
1111111011110010,
1001000001,
1111110010010010,
1111110101011010,
1010010001,
1111110110110010,
10001011,
101110,
1111111011101011,
1111110000010110,
1111110111110110,
1011101111,
1111101010110011,
1111111100110001,
1111111000010110,
1111110010111000,
1111111110011000,
1110011001,
110011111,
1001010,
1111110111011110,
110010100,
1000000010,
11010000010,
1111111001010010,
1111111111011100,
1000001110,
1111111111100100,
1111111010101111,
1001010,
1111111011110110,
10101111100,
1010110101,
1000010010,
1111111001101111,
101110101,
1111111110111110,
,
1111111110111001,
1111111100111010,
1111111011000000,
1111111101110101,
100111001,
11100110,
1111110111010101,
1111111101100011,
1111111100111010,
1010100011,
1111111010100111,
110000000,
1111101001001111,
1111110010010111,
1111001,
1111111110011100,
1111110011100111,
1111111101100000,
100100001,
10011101,
1111111100101110,
1011001111,
1111111001101001,
1111111000110011,
101000100,
1111111101000111,
1111110111111011,
1000010101,
1111101111100011,
1111110101100011,
1111111100111000,
1011001101,
100001011,
11010010,
1001101010,
1111111101001011,
1111111010101000,
1111111000111111,
1111111000010101,
1111111110100110,
101110100,
1111111011101000,
1111111110101110,
100000111,
1111111110101000,
1111111011110111,
110001000,
1000000011,
1111111101000101,
1111111110011110,
1111111110111101,
100101,
110100000,
1111111100100011,
100110001,
1111110001011100,
101,
100110101,
10011111,
11010011100,
101001010,
1111111000110101,
1111111111001011,
1111111011001001,
1111111110010001,
1111111111011110,
1111110010001100,
1111111100010100,
1111110111010101,
1111111100110110,
10111110,
1111110011011111,
1111111111110011,
10110100010,
1111111110000110,
1111111110111000,
1111100011,
110000,
1000110,
1111110010101001,
1111110101101110,
1111111001010110,
11111,
1011100010,
111110100,
1111111111101001,
11011110,
1111111000010010,
1111110111011011,
100011110,
1111110111010101,
100110111,
1111110011110100,
1111110011101110,
111011110,
1111111101101101,
1011110,
1111111010100101,
1101011000,
1011101010,
1111110111010001,
1001001,
1111110011011011,
1111110101001011,
1111111100111001,
101010,
1111110000100010,
1111110111111001,
1111111100101111,
1111111010110000,
1111110000010001,
1111111001011010,
1001101111,
1111111110101001,
1111101011101001,
1111110001110110,
1100100,
10110000001,
1000011111,
1111111111100010,
1111110110111101,
1011100010,
10101101,
1111111111010010,
100110001,
1111111101010011,
10001010,
1111110111000011,
1110111,
1111111111100000,
101110101,
1111111001000111,
1111111010111010,
1111110010000000,
1111110100000111,
1010010101,
1101111,
1111110111001010,
1111111000110000,
11001100,
1111111100111100,
10001011,
1111111100100001,
110001111,
1111111100100001,
1111110110100011,
1111110100010110,
11011001,
1111111110011100,
11101111,
1111110011110001,
101100100,
10111,
1111111000011011,
1111110110100001,
100000011010,
1100110,
101000001,
11110010,
1001001011,
1110110,
10110011101,
1111111001111110,
1111110110101111,
101111110,
1111111001010110,
100101010,
1111110011011011,
1011111,
1111110011100000,
11111000,
1111111101101011,
111011111,
10011010,
1111111011111000,
1101101100,
1000000001,
111101101,
101100100,
100000,
1111111100110000,
1111111000001010,
1001101000,
1011001010,
110110000,
1111111111000110,
1111111111101111,
1111111100100001,
1111110011000111,
10101011,
10001110,
101101,
1111110111000110,
1111111010100010,
1110100101,
10110110,
110110,
11000010,
110100111,
1010100011,
1111110110000011,
1011011101,
1111111011100111,
1011110101,
1111111101100010,
1111101101000010,
1111111001010101,
1111101,
1110101,
10101101010,
1000011111,
11110,
1111111010111100,
101010101,
1111111001011101,
1111111110100111,
1111111111001001,
1000110100,
101101101,
1111111001000011,
1111111111100001,
1111010,
110001001,
1111111110101001,
11011,
1111111111110110,
1111111100000000,
1111111111010001,
1111111100110001,
1111110111000010,
100000,
110100111,
1111101011011010,
101000100,
1111111011010001,
1111111001000000,
1111110010110111,
1111111111111010,
1100110011,
1111110100111111,
1111111110010000,
101111111,
100000110,
10100100,
1111111011100101,
111101001,
1010000011,
1111101110100111,
1111110010100001,
1000000101,
1111111101000010,
1111111111100101,
1111110010010001,
1111101100000101,
1000111010,
1111111000111010,
1111101001011010,
10101100,
11001000,
1111111000100000,
1100101111,
1111110011011101,
1111110011010011,
1100011010,
1111111001101110,
1000001010,
111001,
1110111010,
1011010001,
1111110000010000,
1111110001110000,
1111111110001101,
1111111100001110,
1111110110110011,
1111110000100110,
1011001101,
1111111110101101,
1111111111100001,
1111101111101101,
1100000,
1011000010,
1111111011000000,
1001111000,
1111111101011010,
11000001,
1000000001,
10010010000,
1111110111001000,
1111101101,
1111001100,
110100,
1111110111011001,
1111110101001110,
1111111011000001,
1111110010110100,
1101111011,
1111110100010010,
1111000,
1111110011010000,
1111110110111111,
1111111011110011,
1001011101,
1111110111100101,
111000000,
1111111000011001,
1001000010,
1010011100,
10011010100,
1111110110011001,
1111111110000110,
1111111110010110,
1111110010110111,
1111111110011111,
1111110101010110,
1111111011100011,
1111110110011100,
10001,
1000011011,
11001011,
1111100100001100,
110000111,
1111111100111111,
1111111100100101,
100101110,
1111111110111110,
11110,
1010010111,
1111100110010001,
1111111000111010,
11000101,
1111111111110011,
1111110111110111,
111001100,
1111111001011101,
100010111,
1111111101001011,
100000101,
1111110101111100,
1001110011,
100010011,
1000010111,
1111111111000111,
1111111100010000,
1111110101111001,
1101100101,
1100111100,
1100100000,
1111111110011111,
1111111000000100,
1110110111,
11000110,
1111111100000010,
111010001,
1111111011010010,
1111110111111010,
1111110111100000,
1111110100111100,
110111110,
1111111000001000,
10000011111,
10000100,
1110101,
1111111110000100,
101000101,
100000001,
1111110111111110,
1111111101111111,
1110001,
1111111111011101,
1111111110111100,
100100011,
1000110100,
1111111110100101,
1111110111100110,
1111010010,
1111111110010100,
1111111011011100,
1111111010011110,
10010111110,
1111111101110101,
1101111110,
111110110,
110100000,
1111111101000110,
1111111010100111,
110110110,
1000110011,
1111111010001001,
1111111110111010,
1111111101000010,
11100000,
10000000010,
1110010,
1111111001111000,
1111111111101010,
10100111001,
1111110010111000,
1100001100,
100111001,
1111110001010000,
110100101,
10001100010,
110,
1111110000001011,
11001110,
1111111111010100,
101010,
1111110100011100,
1111111111111010,
1101100,
10101100,
1111111111111110,
110110010,
1111111101001100,
1111110110100010,
1000001010,
1000010110,
1000010011,
1111111101000111,
1111111111111100,
1111111110001100,
1111110110000011,
1111111110010001,
1001011,
111000,
1111111110101010,
1111111010111001,
1100110001,
100000000,
1000011101,
1111111101110000,
1111110000000110,
1100111011,
1111110010100010,
1111111111000011,
1111111010110101,
1111111011011110,
1000011010,
1111111111110000,
10010000111,
1111110000000111,
1010100001,
1011010011,
11110101,
1111111100110000,
10101111111,
1111111111001111,
1111111011011011,
1111111000110101,
1110101010,
1111111010010011,
1000100,
1111111010100111,
1101011001,
111000101,
1111111011100011,
1111101101001010,
1111111110001111,
1111110100101011,
100110110,
1111110100111111,
1111111000101110,
11000110110,
101110,
1111111110010101,
1111111101110100,
1010011010,
1111110010111001,
1101111110,
1001000011,
1111111000010111,
11111000,
1111110101110111,
1000010001,
1111111000110010,
1010001101,
1111101001011111,
1111111100101010,
111101101,
110000111,
1111111010110001,
1111111011010111,
1111110010100000,
1111111111000110,
10001100011,
100111101,
1111110010110111,
1010010010,
111000111,
1001010100,
1111111000110000,
1111111101101000,
101010111,
11111000,
10011000110,
1111111101101011,
110000011,
1111111111100101,
1111111100000111,
1111111100001111,
100001000,
1111110110101111,
1111101111100010,
1111111101000010,
1111110110111110,
1111110110101110,
1111101111011101,
1111111111111110,
1111111110011010,
100000010,
1111111011010011,
101010,
1100010111,
1010101,
1111111111101001,
1011001101,
1111110010000111,
11011100,
1011000101,
100001011,
111100011,
1011101,
111100010,
10010011100,
1010110011,
111111010,
110111011,
1010001100,
1010110010,
1111111111000011,
1111111111100110,
1000010101,
1111111101111110,
1011111111,
1111111001101110,
1111111100010010,
1111111011110111,
11100100,
1001000110,
1111111100101111,
1111111000110101,
110000111,
1100100001,
1111110110001001,
101110,
1111101011101000,
1111111011010110,
1110011010,
11110001,
1101101,
1111110100100001,
1111110101010101,
1111110100010111,
1111111101000101,
1111111101011100,
11111,
1111110101110001,
100101010,
1111100010,
1111111110101111,
101110111,
1111110111011101,
1111110110010101,
1111000000,
10011100,
1111110110011100,
1111111100110001,
110,
1111110001111000,
1111111100011001,
11010111,
1111111001000111,
1000001100,
1111110110010000,
1111111110110001,
1111111101010001,
1100101000,
10010011,
1111110101001001,
1111111100101111,
1111111110100010,
1010010011,
1010111111,
1011111101,
101111001,
1111111111101110,
101111110,
1111111011011000,
1111110110100001,
1111111001100100,
1111110100010010,
1001001011,
101110101,
1000000111,
1111,
1011111010,
1000100110,
11111011,
1100101100,
10000,
1111110101100110,
1111111001100001,
1101101010,
1010101101,
1111111000100100,
1111111111011111,
1111111111101101,
10111001011,
1010100101,
100111001,
1100111001,
1111111100101101,
1111111101100111,
10100001011,
1011101011,
1111111111110011,
1111111011001000,
1111111100000110,
1111111011111100,
100001110,
1111111101100110,
101011001,
10111001,
1010100,
10010011,
110000,
1011010010,
1111110001000001,
1100111101,
1001001,
1111101110111101,
1111111011000010,
1111111100100001,
1111111111111110,
1111111000001101,
100000000,
10000010100,
1111111110100101,
1111111101000001,
1111110001001100,
1111111100111000,
1111111101110000,
1111111011011001,
101010110,
1111111000101111,
11100010,
1111110110011110,
1111110011110000,
10101100,
111100110,
1111111101010001,
1111111110011001,
1011100111,
1111111001001001,
101010100,
110100101,
10000110,
1000010,
1000011101,
110101010,
1000011100,
1101111,
1111111010110010,
1111110101010000,
11110110,
110,
10101111,
1111111110000010,
110001100,
1111111111000010,
111110,
1111101110011010,
1111111101101111,
1111111101111100,
100110100,
1111111000011111,
1111110011100010,
100100010,
100001010,
1111111001111110,
1111101001010110,
101101110,
1000010011,
11010000,
1001010111,
1111110101001010,
1111101011000001,
1000001,
111100011,
1111101110010110,
11111001,
1111111011010010,
1110011000,
10010100,
1111101010,
1111111110000000,
100000110,
1111101111011100,
111010100,
1111111010001001,
1100101100,
1111110100110000,
1111110110100110,
1111111100010001,
1111110011011011,
101000111,
1010110,
1100110110,
1111111101110011,
10110,
10010010001,
1111101101010100,
1101001111,
1111110101011001,
1111110011001000,
1111101111000000,
1111111111001010,
100101001,
1111111111011101,
1011111,
1110000100,
1111111011010010,
10000110,
10001000,
11111001,
1111110101001100,
1111110110011110,
100100111,
100010,
1111110110001101,
1111110100000111,
1100111101,
10000010100,
1111111010101011,
1000111010,
1111111011100000,
10100011,
1111111011111011,
111001111,
1010101010,
1111111001111101,
1000010000,
1111111100100010,
1111111100000110,
1111111100110100,
1111111001101110,
1010011011,
1111110011110001,
1111110111101110,
100011100,
1111110110110011,
1001010010,
1111111001011100,
10001001100,
1111111011110100,
1111111010111001,
1111101110110001,
111111111,
1111110110100000,
100010101,
1111101111110111,
1111110010110101,
1111111110010110,
1111111011111101,
1111111101011100,
1111110110000100,
11001001,
10001,
1111111001011110,
1111111100011111,
1111101001,
1001000111,
1111111111101000,
1111110111111001,
1010111,
1001110011,
101001100,
1101100100,
10000011000,
1010010010,
10010010111,
1111111011010000,
100110101,
1111111010,
1111111001100100,
1000001,
100100010,
1111110111101101,
111,
1011000000,
1111111001000110,
10000101111,
1111110111100011,
1111101000010110,
10110110101,
1111110110010100,
10010001,
110111011,
1111111011111110,
1111111100000100,
1111110111100011,
1001011011,
111110110,
1111111010010111,
1011011101,
1111110000000100,
1100000,
1110010,
1111111111000000,
1001110,
10100011000,
1001110110,
1111111100000100,
1011000101,
1111111000010001,
1100101101,
101011,
1111111100010011,
1111110111010110,
11101001000,
1111111001011000,
11001111,
1111111011101110,
1011011001,
110100001,
111011100,
1111111001011011,
110001001,
1111111100100001,
1111111001110100,
1111111011110001,
11101111,
1111111001000111,
100010100,
110110111,
1111110001011000,
1111111011000011,
1111111000010110,
1111111111101100,
1111111001101100,
1111111111101100,
10010011,
1010,
11001111,
11011011,
1111110111100011,
1111111110010011,
100,
10010010,
101111101,
101010011,
1111111110011100,
1111111010010100,
1111111010101001,
1111111001111111,
1111111111111111,
1111111010010000,
1111101011101100,
1111111100000110,
111011111,
1111110101111010,
1011100001,
10010111,
1010111100,
1111110000111001,
1111110111010011,
1111110101110101,
1111111011100011,
1001111001,
1110010,
1111110011110000,
1111111100101011,
1010010110,
1111111100100000,
1111111001111010,
1011011001,
1111111000011010,
11101000,
1011000001,
1111111011010011,
1111111110011001,
1111111101100111,
1111111111100110,
1010000100,
10000,
1111110111111101,
1111111001010100,
1111111000101010,
1011010001,
101011100,
1111111110111001,
1111111100111101,
101011110,
1111111000001011,
1111111111100011,
1111110101001011,
10111011,
1011000011,
1111111101110101,
1111111111001100,
1101111100,
1011011110,
1111110110001001,
10100100,
1110011,
1111110100100111,
101011111,
1111110000011011,
1001001111,
1111111110000011,
1111111010010110,
1000010100,
1010010011,
1111111000111001,
10110011,
10101111111,
1111111001101101,
1111101011111111,
10010,
1000100000,
1100110,
1111111111100000,
1111110010101111,
111101111,
1111111000011110,
1010001,
1111111010010110,
10100000001,
110000011,
10100011,
1111110111100010,
1111111010010000,
1111110101000001,
1111111111101000,
1111110000000011,
1111110111111111,
100000,
101100110,
101010000,
11111100,
11110101,
1101111001,
1111111110011101,
1111101001011100,
1111110110110110,
100000010,
1111111100000011,
1111110101001000,
1011101,
10100110010,
1111111101101101,
1101101111,
110011110,
110000001,
10000100,
1111111110111001,
111010011,
1111111111000010,
1111110111101001,
1111110111111010,
1111111100111111,
1111111100101000,
1111111001000000,
101100010,
1010110000,
1111110111111111,
1101110,
1110100,
1111111111111010,
10101111,
1111110011000101,
1111111101011101,
1111110111000100,
1111101110010000,
10010001,
1111111001010101,
1111111011100001,
11111010,
111111110,
1100110,
1100100100,
10000111010,
1111111100111000,
1111111100111101,
1111110101101010,
1111111001011101,
111100101,
1110010111,
1010101100,
1000100011,
1100101,
1111110111000110,
1111111001101111,
10000110001,
1111101101100110,
1111111110011111,
11000001,
1111101100101001,
1111110101100000,
1100011,
101100011,
1111110110111110,
1111110111000101,
1111110110010101,
101010001,
1111111101001100,
101100110,
1111101011001010,
10,
1111111101001001,
10101100,
1111111011110000,
1111111110011111,
1101010001,
1000010110,
111111100,
1111111111110000,
110111010,
1101001100,
100011001,
11001,
111111,
,
1111101101000011,
1111110111011000,
1000111011,
1111111001011101,
10101000,
1101110,
101010000,
10010000,
10111010010,
100010011,
1111110110010000,
1111110110001100,
100101010,
1000110101,
10000,
1111111100101001,
1111101111000001,
1111111111110111,
1111110100100100,
1111110101011000,
1111111011010100,
1111111111111100,
111000000,
1111111010001100,
11000001,
1111111010111001,
1111110010111100,
1111111110010101,
1111111001101101,
1111111001000000,
1111111001110010,
10011110001,
1011100111,
11001101,
1111111000010111,
1110110111,
1111110001000110,
1001001011,
1011101,
1111111100111011,
1111111001101101,
101000000,
1111111111011010,
10010111,
1111111100011111,
10000001110,
1111111011101100,
1000110110,
1110011110,
1100100,
1111111110111100,
1100001011,
1100001100,
1111111000001111,
1110011000,
1000111111,
1111110101010110,
1111110101010010,
1111111000010101,
1111111010001010,
1111111001001001,
1111110001101001,
1111110011111110,
11011100,
1111111100010011,
110110111,
1001010101,
100001011,
100001011,
10001110,
1111111001110001,
101010010,
1111110100001010,
11111111,
1111110101010011,
1111111111000111,
1111111100100110,
1111110101111100,
100001111,
1111111101110001,
100101,
1111111010000000,
100100000,
11000011101,
1001000,
1100011010,
1001,
1111111010101100,
101011,
1111111110100111,
1111110110001100,
1111101110100110,
1111111111100101,
1111111110000000,
1111111011000111,
1000011101,
1111111000101010,
11100000,
1001,
1111111011011100,
100100100,
100100110,
1111111000011101,
1100110110,
1111111111001110,
1101110110,
1111110111110001,
110111010,
1111111010110101,
1010110001,
11100011,
1111111011111001,
11110100,
1011011,
1111111000011111,
1111110111101111,
11111,
111000011,
100000000,
1101000,
1111111000111100,
100111101,
1111110110001001,
1001010010,
1111101001010111,
1111110100011000,
11001111,
10101101011,
10000101000,
1111110001001111,
1111110101011010,
100110010,
1110101,
1111111101001000,
110100101,
1111111101111101,
1111101110111100,
1111111111000110,
1111110010001000,
1111111011011011,
1111111011001011,
1111111000100110,
1111110100000010,
101101,
1001011100,
101001000,
1011000,
1000100011,
1100011,
100011101,
110001111,
1110000101,
10000000101,
1111110111010110,
1000000,
1111111011110011,
11001011,
10110010,
1111111100011111,
1100111010,
1111111011001011,
111010010,
101101,
1111110110011110,
1111111100111001,
1111111010001111,
1001000010,
1111111111000001,
1111110110101111,
1111111010101011,
1111111111001111,
1111111001001110,
1000101101,
1111011,
110100110,
1111111011111110,
1101101100,
11101000,
1001001000,
1111110110111001,
11001011,
1111110101011011,
1111110001011011,
1111111000111100,
1111000010,
10111111,
10101111001,
10111111,
1111101101001100,
1111111000000111,
1100101,
10101101000,
1010010110,
1010001110,
1111111111011100,
1111111001100000,
1111110111101011,
1111111100110011,
1111111110011100,
1111111000011010,
1111101011100110,
1111111111111110,
1110010,
110101001,
1111110000110110,
1111111111101100,
1111111101000011,
1111111010001001,
1111110010111011,
1111110000110000,
111110011,
1001100010,
1111110001000110,
101111001,
1111111010110111,
100110010,
1001111010,
1111111111100101,
1111111001011011,
1110011111,
1111110111111011,
1110111010,
1111110100101010,
1001100000,
100010110,
1111111001000010,
1101101010,
1111111010111110,
1010000111,
100010110,
111001001,
1111111111010001,
1111111111100100,
101101000,
1111111111001011,
1111110100101110,
11001101,
1001010010,
1111110000101001,
1111111001111000,
1111111001010000,
1111001111,
1111111101100101,
111110000,
1111111011110010,
1011011000,
1101100,
1111110110010011,
100010101,
1111110100100000,
1111101010001100,
1111111100010001,
11111100,
1111111100111001,
1000111011,
1001101101,
1111111110101010,
11011001,
100111000,
1000101000,
1100000000,
11110111,
1111111101010111,
1111110001010001,
1111111101101000,
1011000110,
110011011,
1000100010,
1111110011001101,
1111110100000111,
11010,
1111101110001101,
11111110,
101011100,
1111111000011111,
1111111110110001,
1111111000101111,
1111111011011001,
1001101000,
1000010111,
1111110001000000,
1111111100101011,
10110010,
1100001010,
1011111110,
1111101111001001,
110000000,
1111110100011001,
1011000010,
110110,
1111110001010110,
1111100100000010,
1111111000111101,
1111110010100001,
1011010000,
1000000001,
101100010,
1111111001100000,
1111111010011000,
1011110100,
1111110101100110,
1111111101001110,
1111110111101101,
1000001110,
100000000,
101100111,
1111111010110110,
10010010,
1111110001011100,
1111111110000111,
1001110011,
100111110,
10000110,
10001011,
110101,
1111111011011111,
1010000110,
1111111001000100,
1111111001010101,
100000110,
110100,
10001110010,
1111110111011100,
1111111001101101,
1000110101,
1101101001,
1111111111010110,
1111101100010000,
1111111101011010,
1110010,
1000111011,
11010100,
100010,
1111111100100100,
100100111,
10000,
1111111100001111,
10010010,
1111110110000010,
1111111011010111,
1111111101100110,
110010111,
1111110111101101,
111110011,
1111110010110110,
1111110000111110,
11110011,
11000000,
1000001001,
101101101,
1111110110000011,
1111110100000110,
11100011,
10111100,
111001001,
1111110100101011,
11100000,
1111111111111011,
1111110010110111,
1111111110011000,
1001010011,
110010100,
1111111100111101,
1111110110111010,
1111111101010111,
1111111100111111,
10000010110,
101100001,
1111111110011010,
10111101,
1111111110000011,
1111111010010110,
1111111100000100,
10110011,
1010100011,
1111110100001111,
1111101111010011,
1111111101001111,
1101011100,
1111110100110011,
1110010,
1111110111000100,
100110,
1001001101,
1100011100,
1111111101000100,
1010011100,
110111000,
1111111000001010,
10011111101,
1111111100011001,
1111110111100000,
101011,
10010010001,
1111111011100111,
1111110111100010,
1000001000,
100110110,
10001011000,
100111000,
,
1111101101110100,
1111110101110110,
1111110100110110,
1111111110100110,
1111111111101000,
1111111100111111,
10000010,
1111110111100011,
100111010,
101000010,
1111111100110010,
1010,
10101011,
1111110111100101,
110010110,
1011010,
1011001001,
1000100000,
1111111111110001,
1111111111001111,
10100001,
1111111011000100,
1111111001000110,
1111111100000010,
1111110100101101,
1111110101001011,
1011000001,
1111110010010010,
1111110011010001,
1111111000100011,
1001,
1111111001110110,
1111111110001101,
1111111001011100,
1000000011,
1111111010111001,
1111111011101110,
1111111001001001,
10011001111,
101011000,
10110101,
1111110100010000,
1101000011,
1111111011110101,
1111111101100001,
11000100,
1111110110101101,
10110111,
1111111001100011,
1111101,
1111111100111001,
1111110101000100,
1111110111111101,
110,
1111101111011101,
1101,
1111111111000011,
101001000,
1111111110001101,
1111111110111101,
10100001,
1011101110,
100011101,
1111110001001100,
1001000000,
1101011010,
10010111001,
1001011,
11110110,
10110100,
1111111000100110,
1000111001,
1001010001,
1111111101111100,
1111111110011111,
1111101101001110,
10,
1011000,
1111111000100001,
1111111100101001,
1001111111,
1111110,
1111111001111101,
1111111101011011,
1001,
1111111010000101,
1111110111001101,
10011100,
1111111110001111,
1011111000,
1111110001010011,
1001001110,
1111111011001001,
1001010011,
1010001000,
1111110100001011,
1111111111001011,
1111111111011001,
1111111110000000,
1111111101001000,
1111111001001000,
10000000011,
1111110111111100,
1111111100001100,
1111111100111000,
1111111010010011,
11011011,
1111110100010011,
1001010000,
1111111001110000,
1001110000,
1100000010,
1111111000111110,
1111111100101110,
1001001011,
10101111,
1111110110111010,
1111111001110011,
1111101010101010,
1100000010,
11100001010,
1111111110110101,
1111110110100001,
10001000100,
101101,
1111111010101010,
1011001111,
1001001111,
1111111100010011,
1000001,
1111111010001010,
110100100,
1111111110010010,
111111010,
1110000100,
10111100110,
1111110111100100,
1111111111001010,
10111100,
1110101,
10110111,
1111111001011001,
1111110101011101,
1111111001001001,
11100000,
11101100,
111101,
1000111011,
1111111110000010,
1111110001011110,
1111110001010001,
10001000,
111,
1111110101011001,
1111111000011001,
1111000100,
10100,
1111111111100000,
100101111,
1100011010,
111000100,
1111110001110111,
10111011,
1111111001100001,
110101001,
1111111001100111,
100010111,
1111111110111011,
1111101011001011,
111000001,
110010101,
1111110101001111,
101101101,
10100000,
1111110111100011,
1111110100101110,
1111110111110111,
1111110110101001,
10001,
1111101110011110,
1111111111010000,
1111110010111010,
1011011,
1111111100110111,
10010000000,
1111111001100000,
11101110,
1010110101,
1111110110110111,
110100101,
110001100,
101101000,
100110011,
1111111000011111,
1111111100110001,
1011100,
110001001,
100100011,
1110111101,
10000110111,
1111100110101000,
1111111110001111,
1111111110010010,
1111110000011000,
110011000,
1111111110,
1111111011000111,
1111111100100000,
10011010011,
1001000000,
1010000101,
1111111111110010,
10,
1000001001,
1111111100010110,
111000011,
1111101110010110,
1111111011110101,
1111111010101011,
1111111111001011,
1111110101100101,
1111111010111010,
11101,
10001,
1111111111101100,
1101101010,
1011111011,
1111011,
1111110111111100,
1111111010101100,
1110011110,
110101001,
1101010,
1111111111101001,
110010001,
101000000,
10101100111,
1111110000111010,
100101000,
1111110111100111,
111100111,
1111111111001110,
1111110110100011,
1111110110100011,
1111111101101000,
1111111111111010,
1111111000100101,
10110101,
1111110111101001,
1111110100100110,
10001100,
1111111100111110,
111000,
1111011110,
1111110000100001,
1010010100,
1000001101,
1111111010101100,
1110101,
1111101110010110,
1111101101110100,
111,
110010000,
1111111111100010,
1111110111001111,
1111111100011101,
1111111100010000,
1001101000,
1111111011101000,
1111111100110000,
1000101,
1100111111,
1001000101,
11100111,
1111111011001111,
11001001,
1111101100001111,
1111111001101001,
1111110101111110,
1111111001101011,
101110010,
1110101001,
100011000,
1111111001111111,
101111010,
1100010,
10011100,
10001011111,
1111101011011100,
100010100,
111101010,
100000011,
1111011,
10011000,
1111111111010101,
1011001110,
11010110,
1111111001001101,
1111111110101111,
1111110001100010,
1111111101011011,
111000100,
1000111,
10111011,
1000011101,
1111111101001000,
1111110111100010,
1111111010011111,
1111111101101010,
1111111111001010,
101001010,
110101000,
1111010,
1111101000100011,
1111111110000001,
1001010,
1011010,
1111110111111001,
1111111000000010,
1100000000,
1111111100001010,
1111111000001001,
1111110000000100,
1100101010,
10001110,
110010010,
1111110010000011,
1111111010110101,
1101011101,
1011110,
10100100,
1111111001000100,
1111111100011110,
1000010,
1111111110100111,
111000011,
111100111,
1111111100111011,
1101110110,
1110100000,
1111110010101111,
1001111111,
1111,
1101001000,
1111110111001000,
1111111110011110,
1111111011100111,
10111011,
111101111,
1111111010100001,
100101100,
1111110010010110,
1111110010101101,
1111110010101111,
10010000100,
10001,
1111101111110000,
10100110001,
1111111110001001,
100000101,
1111111000001001,
1111101000110011,
1111111011110111,
1111111001010101,
10001011,
1111111010011011,
11110110,
1111110111101000,
100010111,
1111110001110110,
111000,
100101010,
1001010,
10111100,
1111111010101001,
1111111101111011,
1111110100110110,
1111101100110011,
100010011,
1111110010010010,
1101001111,
111010111,
1000111,
111111001,
1111111001011100,
1111111110000000,
1111101110100001,
101101010,
1111111011010111,
1111111101111000,
1111111100001110,
1001100000,
111100111,
1111111100010010,
1111111001111010,
1111111111100001,
1111111011110000,
1111111011110011,
1111111001111101,
1111111111011110,
101111,
1111111001111010,
1111110011010110,
100011101,
1111111101101011,
1111110100010011,
100111110,
1001000101,
1111111110101000,
1111110101010100,
1111111011100011,
1111111111100100,
1111101111100001,
101001100,
1111111110100111,
1111110101111000,
10010001100,
1111110011110010,
1111110000001110,
1001001110,
1111111000001010,
101011,
1111111110000000,
1111110111100001,
1111110,
1111111001110001,
1111111000110100,
1111110000001110,
1110011001,
1111110011110001,
1010100101,
1111101111101110,
1100011000,
11001,
10000001100,
1111110011001110,
1111101110110111,
111001000,
1111111101011110,
1111111010101001,
1010100001,
1111110111000101,
1111110011,
1000111001,
100101001,
1111111001100100,
1111111110111001,
1100000100,
1001000101,
100110101,
1000110101,
1111110010100100,
1111101111111110,
1111110001111000,
1111101011111110,
1111111010100010,
1110101000,
11010,
1111111000110111,
111110001,
1111110100000001,
1100110001,
110000101,
1111101100010111,
1011101,
1001001100,
1000100100,
1111111100101011,
111010,
1111111110101001,
111111011,
1010101010,
101010111,
111101011,
100000000,
1111111101111101,
1100010,
1111111100001000,
11101011,
111100001,
1101110101,
1111110110100111,
100101111,
1000011011,
1111111011000101,
1010100,
1111111100011111,
1001111100,
1111110011001000,
1111111110110101,
1111101011,
1111111101111100,
1001011011,
100111,
11010000,
1111111101111101,
111,
1111111011101000,
11010,
1111110111010101,
1111111100100001,
100011101,
11110001,
1111111000000000,
1011010000,
1111111111000011,
1111101001100101,
101010011,
1111111001010101,
1111111100111101,
101010110,
1111111011001011,
1111110000001100,
1111110100001000,
1111111100101101,
1111110011100000,
1111111100111011,
1111111001111011,
1111111101011001,
1111111100010101,
1111110111000111,
1010110011,
1111111110111011,
1111110111111001,
110011110,
10100110,
1111111011100100,
1111111010110000,
1010001001,
10011011110,
10000110,
1001011011,
1101010011,
111101101,
1101110000,
1111111100100111,
1110001,
1111111001110110,
110101001,
1111111010100111,
1100111111,
10000100100,
1001110,
1111111110011110,
1111111000101100,
1111110101111110,
100010101,
1111111001101101,
110010001,
1111111110100011,
110100001,
10,
1111111000001011,
1111111001101101,
1000010111,
1111110111011010,
1110000000,
1111110110110000,
1111111110010000,
1010,
11011100,
1111111100101110,
1111111010100111,
1111111110001000,
1111111011001101,
1111110100100001,
1111111001101100,
1111110001110101,
1010100,
1111111111110100,
1001001,
1111111000001011,
11101000,
1111110101100100,
1111111000110010,
10111110110,
100001111,
110010111,
100001110,
1111110111001011,
1111111110101100,
100110011,
100011111,
1111110010011111,
1111111111010101,
1111110000011000,
1111111011101110,
1011110110,
1111111110010100,
1111111011001110,
11001001,
101000010,
1111111110101010,
1111110110111011,
11011,
1111101000011011,
10001011010,
111110100,
1111101110110010,
1111111011001010,
1001011010,
10001111100,
1111111110000110,
10110101001,
100011101,
1111101001101010,
101111000,
1111111011101011,
1111110111111111,
1111111011111010,
1111111100001001,
10001010,
1111110110101010,
101000010,
1111111011110101,
10100110,
111000011,
101001,
1010100001,
1111111110011010,
11100101,
1111111011000001,
1110101000,
1111110100111111,
10101101,
1111111101101100,
10000000,
1111111100,
1111111110010010,
1111110111110111,
111010100,
100111010,
1010000110,
1011100001,
100111001,
1011000,
1111110101101101,
11000100,
10000111101,
11001101000,
1111111111010010,
1111100110111101,
1111111101011111,
1111111111010011,
1111111001001100,
10000000,
101101101,
1010111010,
1111111111000000,
1111111000000100,
1111111001101011,
1111110011,
1111111110100110,
1111111111111111,
101010010,
1000011,
1000101101,
1111101111100011,
1111111100100110,
1111010010,
1001001111,
1111111110101111,
1111101101110001,
1111101101,
10001000011,
1111111100111100,
101001010,
1111110110110011,
100001100,
11010001,
1111110100101011,
1111110001011110,
11101,
1111110010,
1111111101011100,
1111111111010011,
1001101,
1111110011011000,
1000011,
1111110111111101,
10100101,
1111111110110101,
1000111111,
11001100,
1111111001000000,
1111111000001000,
1111111111010001,
1111111001010011,
10111101,
1111111101111000,
1111111111101001,
10010010,
1111111101111001,
1010001011,
1111110101100100,
1111111100010000,
10001000101,
1111110000111011,
1111111000111111,
1111111101101011,
1111111111101000,
1111110001000010,
10010010,
11111000,
10110101,
10101000,
11000001,
1111110111101010,
101110010,
1111110100101001,
10000001111,
1111111001111011,
10000101101,
10101000,
100101010,
1111110101001000,
1111111011000111,
1010,
1111111110011000,
1111110010,
100001100,
11000100,
1111111000110001,
10101110,
1000,
1111111011010000,
1011011,
1111110101011100,
101011110,
1111101101110010,
1111111000010111,
1111111101110010,
1111110100011100,
100110010,
110010000,
10011010,
1111111010100111,
1011100,
101100010,
1111110010101101,
101001100,
1111110100001100,
110100010,
1111111110000101,
100101100,
100010001,
110001111,
1111111011100001,
1111111011000001,
1100110001,
1000100001,
1001111100,
10001011,
1111111100110011,
111111000,
101010000,
101000100,
1111111111101100,
1111111100000001,
1111111001010110,
1101110001,
1101001111,
1000010110,
101111100,
1101000111,
11011111,
1111111001000011,
1111111110101110,
1111111111010110,
1000001111,
1111111110000000,
1111110111001000,
1010000101,
1111111111111011,
10010001101,
1111111111011011,
1111110100000100,
10111111,
1111111001100110,
1111111001011110,
110011111,
1111111001101111,
10100000001,
1111110011101010,
1111111110010010,
110001111,
1111110111011101,
110110110,
1111111011111010,
1111111001000010,
1001000000,
1111111000101000,
1111111110101101,
1111110100010111,
1111111000010101,
1111100110,
1111110100001110,
101111001,
100101010,
101101001,
1111111111111100,
101011111,
1111111010011001,
110010110,
111001000,
1111110111101111,
1111111001001111,
1111111001010110,
1111110110011010,
1111110111001010,
1111111110011001,
1111110101011001,
1111110011111010,
1000110001,
1111110110001101,
110110011,
1111110110000011,
1111111001011101,
1111110111100001,
1111101111110101,
100000111,
101101110,
1111111001000011,
10100110,
1111101101101111,
1111110110101011,
1111110110110010,
11110011,
101011010,
110100111,
1000011001,
101100101,
1111101100110110,
1111111101110100,
1110010,
1111111100011111,
1111110110000111,
1100001101,
1010000111,
11101100111,
1001001,
1111111110111011,
110110011,
1111111001010111,
1111110001011000,
1000010101,
11011010,
1111111100110101,
1010011,
1010010011,
1111111000100010,
1111111000010011,
111001001,
10001011001,
1111110111010111,
1111111101111111,
1111110101110011,
100010101,
1111111011010001,
11001,
1111111010101001,
110000001,
1111111101000011,
11000011,
1111111100000000,
1000100101,
100000000,
1111111010111100,
11010101,
1011110101,
1110011010,
1111110011000111,
1001011101,
1111111000001010,
1001101010,
1111110110010101,
1010100110,
10010000,
1111111100000010,
1111111000000011,
10000010110,
1111110001110011,
101000010,
110001000,
100001111,
10111001,
10110001011,
1111110000000101,
1111110100010010,
1011111011,
110100110,
1111111110011001,
1111110000011011,
1111111001000101,
1111111001111011,
1111101010001101,
10111010001,
1111110111011000,
10111011100,
1011010011,
1111111111011101,
1111101111110001,
101011100,
1111110010101011,
11010101,
1111100101100001,
10110000,
100100010,
1111111100110100,
1111111000111110,
1111111010100110,
101100,
1100101001,
101010010,
101100001,
10010101,
1111111011110101,
1111111100001101,
1111111101111110,
1111111100011100,
1111111111100000,
1111111111000100,
10010100,
1100110,
1100010111,
1001111010,
10001110,
1111101101111011,
1111111100010111,
1111111110000000,
1111110111011100,
1111110011000011,
1111110011001001,
1111111010110100,
10100010,
1111111001001011,
1111101000101111,
10110011,
1111111011111100,
1111110111110110,
1111111100101011,
1011010100,
1000001010,
1101001001,
100001001,
1111111010000011,
1111110010011110,
1111111110010100,
1111110010100101,
10111000,
1100111000,
1111111001110010,
11101110,
1111110011101111,
1111111110000100,
1111111010101001,
1010111010,
1111111010001000,
1111111100001101,
1111111110110010,
1000010001,
1111110010101110,
1111111110100101,
1111110010111100,
1100100110,
1111111011110101,
1111111100000000,
1111110101110100,
1011101011,
1111111110011100,
1111111000101010,
100100111,
1111110100100101,
1111111011111110,
1111110101000111,
1111111100000111,
11000010011,
1101101001,
1111110110100010,
1111111100101110,
1111111101010111,
1111111010001111,
1111110001100100,
1111111010101100,
1000110010,
101000110,
1000000000,
110101110,
1111111101011110,
1111100111100110,
1010110111,
1111101111001001,
1111111010111110,
1010101110,
110110101,
101111000,
11101001,
1111111101110010,
100110001,
1111110110011011,
1111000,
1100101,
1111111000010010,
1111111011110011,
1101111,
1111111111001000,
1111111100100101,
10110101,
1111111111100010,
10011100,
1111111000011100,
1111111111110010,
1111111010011101,
1101001110,
10001101,
1111111110100100,
111101,
1111111011110010,
1111111001110010,
1101000010,
110011001,
1111101111100011,
1111110000000001,
111010,
100010010,
1111111110000111,
110101011,
1100,
1111111101100101,
1111110101000111,
1000010100,
1111111010000110,
100011101,
11110010,
110110,
10011100,
100000000,
101001111,
1111111100011000,
1111111001010101,
100110100,
11010111,
101100110,
1111111101000011,
10001110,
1111111001001111,
1111111110000101,
1111111111110011,
1111111101001000,
1111111001011110,
1111111100101011,
1111111110100001,
1001110001,
1111101011011010,
11001111,
1111111100010010,
1001100,
1111111101011001,
1111111000000000,
11001110111,
1111110111110000,
11001001,
11110000,
1010011111,
1101101001,
1111111101101100,
1111110111111001,
1111111100100100,
1001000,
100110111,
11101001101,
1100100010,
1100111000,
1111111011000001,
1010100011,
1011100000,
100110110,
1111110110011111,
1111111111,
100101011,
1111111100000111,
1111111011110111,
1101,
111010010,
1111111110010101,
1111110100111111,
110111010,
1111110100001100,
110010001,
10110010000,
1111111111000101,
1111111100111001,
1001011110,
10001,
100101,
10001110,
1111111110110100,
1111101011011110,
100110010,
1111111010100000,
1010011111,
111001100,
1111111010100001,
11100000,
11100110,
1111110001011010,
1111101111001110,
1110011,
1111111010110000,
1111111100111111,
1111111011000000,
1111110110111001,
1010111110,
11000011,
1111000111,
1011110111,
1111111101011110,
101100,
101,
1111111100111001,
1111111110110010,
1111111100110111,
1110000001,
1111111110001110,
1111110010110110,
1111111111111101,
1010010100,
1111110100000100,
1111111111101111,
110000001,
11111011,
1111111111001101,
101100111,
1010111000,
11001111101,
101001010,
100000111,
1000111110,
1111111110101111,
1111111010100101,
1111101110101010,
1111110100000110,
1111110001010101,
1111111001001111,
100000001,
1111110101001000,
1111111101001110,
1111111110000101,
10100001010,
110111100,
1111110010100001,
101001,
10101110,
10001100,
10000001101,
1111111010101000,
1101011011,
1111111100100110,
1111101100010100,
1111110000111000,
1111111101101010,
1101000110,
1111111100101010,
11011010,
1111111101000100,
1111111101110101,
1111110010100001,
1111111001110101,
101010010,
111010,
1111110101010001,
1111111001111110,
1111110101011100,
111100101,
1000011101,
1111110101100011,
10111001001,
1000110110,
110010111,
1111111110011011,
110001010,
11111010,
1111111100110100,
1111111100111000,
1101011,
1111111010010101,
10010011100,
10000100,
11011,
1111111110001000,
1001001,
1111111110010100,
1111111100000001,
1011110111,
1111110101111011,
10001110,
110101101,
11100001,
101111100,
111000010,
11101011,
1111111111100110,
100110100,
1111111010101001,
1111111100001001,
1111110100000001,
1111111101111001,
1111111101111010,
1111111001110010,
10101001,
10000101100,
10000100,
1111111010110010,
1000101101,
101101100,
1111110110111011,
1111111111000010,
111101000,
111101101,
1111111001110011,
1111111011000110,
111000111,
1,
11010000,
1011000001,
1010010,
1111110001111110,
10000110111,
1111111101010100,
1111111010010010,
11001011,
1001111110,
111000101,
10010,
101010101,
1111110011111111,
1111111001111000,
1111111001000011,
1111110110011110,
1111111110101011,
10011001101,
1111111010000110,
11101000,
10001101110,
100111010,
1111110111000000,
1110100,
11111111,
1000011100,
1111110101001110,
1111111010011010,
1111111011011011,
1011100,
1000010110,
1111111010000111,
10000011,
1000010100,
1111111101001001,
1111110110110001,
1110010010,
1111110111101001,
1111111110110011,
1111110101001011,
11000001,
11000111,
1111111010001011,
10001100010,
1111111011001111,
1111111000101110,
111110010,
1001,
1111110011010111,
1111111110111000,
1101011101,
1,
1111110110100010,
1111110001110101,
1100011001,
1000001100,
1111110101101111,
1101100,
1111110101111000,
101010110,
1111101010101101,
101110101,
1000110000,
11110000,
11011000,
1111111101011010,
1111110110110011,
1111110111010110,
11100100,
1111111110110011,
1111111110101110,
1111111101100111,
1111111100100111,
1111110101001011,
1101100100,
10000101,
1010100,
1111110100001000,
10011110,
1111111001111000,
100000000,
1111111011011011,
100011000,
1111111101111111,
1111111100110101,
1111110100100000,
1111111001101011,
1100100,
1111111101010111,
1111111100010110,
101000010,
1111111001101011,
1111111101101000,
10001001100,
1010101000,
1111110110001010,
110010000,
100111010,
100110100,
1111111100100110,
111100110,
1111111111011011,
1111111110011011,
1001000011,
1110111,
1111111111010000,
1111111101000111,
10000110101,
1111101101111101,
1111110110000001,
1111111111001001,
10101100,
11111,
1111110111010010,
1111110000110010,
1111110,
1111101101001100,
1011100,
1101110,
1000101101,
1100100001,
1010101110,
10111100,
1111110011010001,
10000010111,
1111110111110011,
1111111111,
11001,
1111101111011111,
1010100111,
1111111101110010,
110011010,
1111110111111001,
1111110101111100,
1001111110,
1111111010011111,
1111111100010111,
100010111,
1000011100,
1111110000000111,
11000010,
1000101111,
1111111011101000,
1111110001011101,
1111010011,
11001100,
1111110111011011,
11000011,
110011111,
1111111101000011,
1101011,
111100,
1111111001010000,
1111111110001001,
11010,
1111011101,
1110101,
1111111101101011,
1100101,
10001101,
101110100,
1111111101111111,
111011101,
1111111000101111,
1111110000011011,
1111111110100001,
1111111011111011,
11011,
1000000001,
11010010,
100111001,
11110011,
1111110110010000,
1100111011,
1111111010001100,
1111111111001110,
1111110111100000,
1100110,
10000010,
1111111101101000,
1111011,
1111111011101101,
1111111110001010,
111000100,
1111111001010100,
1010111110,
10100100,
1111110111001011,
111011111,
111100010,
1111110100101100,
1110110010,
1111111011110010,
1111110000000101,
1111111110101101,
1111110101001110,
1111111001011111,
1111111011111110,
1111111101111010,
1111111000000000,
111000101,
1111101111111001,
1011111,
100001100,
10101101,
101011101,
1111111101100010,
1111101001110111,
1111110011010110,
10010100,
1111111011011110,
11110101,
1111110010011000,
1111111001010100,
1110010110,
1111111111100001,
1111111101011100,
110010,
111001000,
100011011,
1111110111110110,
11111000,
1010101001,
1111111100010001,
1111111100000101,
111111110,
1111111001101001,
10110,
1111111101011100,
1001111101,
10001,
10101111,
1111111111010110,
1111101001010110,
1001110100,
11000011,
1010111010,
1111111111110101,
1111111111001100,
1111111110111011,
11001001,
10000001,
1010010,
1111111001101111,
1100111,
1111010011,
10110111,
11111010,
100110101,
11001010,
1101100,
10011110,
10000111001,
1111111000000000,
101100111,
1111110010011111,
1111110100110101,
111100,
101000011,
1111111111010011,
1111110011100000,
1110011110,
11010101,
1111111011100001,
1111110111010110,
101101001,
1101001,
1010111000,
10011010101,
1111111111000101,
1111111010101110,
1111110011110100,
1110100111,
100000011,
1000101101,
100001110,
1111111010110110,
1111110111111100,
1101110,
10000000011,
1111111101100110,
1111110101101111,
1010001000,
1001101001,
1111111011011110,
1111111000010110,
1000011010,
1111111000110010,
1111101101110000,
1111111101110111,
111101111,
1111111000101101,
1111111000010001,
111001101,
1111110010001011,
1111110110111110,
110,
1001001100,
1001011001,
1111110101000111,
1111110110001001,
1111111010000101,
1111101101000010,
1010111000,
1000111110,
1111111000010110,
10000010100,
111110100,
10001101,
1111111101110001,
101010,
1111101110010000,
1111111101111010,
1111110001010111,
11100,
11011010,
10000011001,
1010100011,
110011,
1111111000000010,
1000110101,
100101111,
1101010,
111011111,
1111111011000010,
10001010,
1111110100001000,
1111111110001011,
1001001010,
10111110,
1111111110111101,
1111110101100111,
100001,
11100000,
1011000,
1111111011010110,
1111100111001001,
1111111011100110,
11010011110,
1000111,
1111111101010000,
1111111010100011,
1111110111001000,
1111101100110100,
1100010100,
10100000,
1001000001,
1111000110,
1111111100111011,
1011100100,
1111111100110101,
111011000,
100110111,
1111111010101101,
101010011,
1111110110001010,
1010000111,
1111111111000001,
1111110111100010,
1010111000,
1101101111,
1111111110100100,
1111101111111011,
101011100,
1111111000000001,
11011010,
1111111111110110,
1111110000011100,
1101101101,
1100010000,
1111110001111001,
1111111101011111,
1111110001101111,
111001010,
1111111001001001,
1111111100011010,
1111111011010100,
1111110101101011,
1111111000101010,
1111001111,
1011100101,
1100000110,
1111111101001110,
1011011,
1110101,
1111111010011011,
1100,
1100111101,
1111110000010011,
1110111011,
1111111011111011,
1111111011010101,
1001110011,
101000,
10001111011,
1111111111101101,
10011100,
100100111,
1100011,
1111110111111110,
1111111010110000,
1101000011,
1111110110101001,
101110101,
110010101,
1000101000,
1111111010111111,
10010110,
10100100000,
1111111101010100,
10011010110,
10000101100,
1111111001111110,
1111111000101011,
1011001,
1111100,
1111111010000111,
10001001010,
1111111010100100,
1111111101011010,
1111101110001111,
1010001010,
1011000011,
1111111110001010,
1111111101110111,
1111111011010000,
1111111011101110,
1111111011011011,
11001011101,
1101101001,
1111111011011010,
100100101,
10111110,
111100111,
11111110,
1111110010100100,
1000000,
10011000,
1111111111000101,
1111110100010101,
110110100,
1111111110011010,
1111111100011000,
1011110101,
100000100,
1111111001111101,
11010011,
11100111,
1111111110001000,
1111110101001101,
1111110110000011,
1111111011000001,
1000000,
1001011010,
1011111001,
1111111000110100,
1011001001,
1111111010000000,
1111110000010110,
100110111,
1111100101100101,
101000,
101010101,
11001001,
1111110011010011,
1111111000011100,
110100,
1010100,
1111111100000011,
110011001,
1111111110011010,
1111111010101111,
1011101100,
1111111111011001,
1111110100000011,
11101100,
1111111101111010,
1110110000,
101101111,
1111111010100000,
1111000100,
1111111001110110,
1101110011,
1111111111000100,
1011010110,
10100001101,
1111111011000111,
1111101100111110,
1111110010010000,
1111110110101000,
1111110101010011,
1101000001,
10110111,
10101100,
,
1111110011011011,
1111111101001001,
1011101011,
11100100,
1111111000010001,
111110011,
1000100101,
1111111101001011,
1111110100111101,
1111111100110000,
111011000,
1110111001,
1111111110100001,
1111111001001001,
1001010011,
1010011000,
1111101010111100,
1111110101100101,
111111100,
1001001010,
1000000001,
1111101111010110,
1111110101011101,
1111111101111101,
1000100,
1010110,
1111111110000000,
100011010,
101000,
100011000,
10000010,
1111111011110100,
101111000,
1111111101010010,
1111111100011001,
100,
101101010,
11001111,
1111111001000100,
1111111110110101,
,
1111111111011000,
1111110110100110,
1111101010011100,
111010,
1100110111,
1111110100101100,
1100001001,
1111110111010000,
1111111101000100,
1111111000001001,
10010011111,
1111111011010011,
11000011,
10111,
10101111,
101101,
101101101,
111011100,
101110010,
1111110111000110,
1111101110010101,
1111111100010010,
1111111010100101,
1111110001110100,
1111111111111010,
1000000000,
100011001,
1111110000010010,
1111111010101011,
100011,
11110101,
10111,
1111110000110010,
1111111011101101,
1010011010,
1111101001001110,
1111111000111110,
11000011,
1101010011,
1111111111100011,
1101000011,
1111110110000011,
1010011010,
11110111,
1111110001110110,
1010100110,
1111110110111111,
100011,
110,
110111,
1111111100011111,
11000110,
1000000100,
1000010011,
11010100,
111111011,
10100111,
100100011,
1000101101,
1001000000,
10110,
1011111110,
1111000001,
1111111101111101,
1010001101,
1111101101100001,
1111111011110011,
1111111100010110,
1111111110011110,
1111111000100000,
100100011,
10010110100,
110100001,
1111111000011001,
1111111100010000,
1111110101000110,
111101111,
10110110,
1011111101,
1111111001101111,
1111110111110101,
1111110111001110,
1001111101,
10000010,
1111110011,
100000010,
1111111111100001,
101111,
1111110100100110,
1111111110010010,
1111111101011010,
1011101010,
1111110000101010,
1111111101011110,
1111111011111001,
11100,
1111110010100001,
100111010,
1111101100000011,
10001001,
1111110111111110,
11101010,
11011100,
1111111110100100,
101011100,
1011000101,
110010110,
100011010,
1111110111101001,
1111111001100100,
1111111111101110,
111010110,
110001100,
1111110010100011,
1111111010,
101010000,
11011100,
1111110100001011,
1111110001100001,
1111111011101000,
1111111110010110,
10110,
1111111010011000,
1111111011110001,
1111110100011011,
1111111001000010,
1111111101001100,
1111000,
1011100000,
110001100,
1101000,
1010,
1111111101010011,
1111111101000110,
100000100,
1110000,
1111110010010110,
110111110,
111100101,
10011111,
1111111101101010,
110011011,
1111111010111011,
1111110100001001,
1111111001010010,
1111111100001011,
1011010110,
1111101100101001,
1111111100100100,
1111111111011100,
110110011,
1111110010101010,
1111110101001000,
1111110110011110,
10011101,
1111110100100000,
100100111,
1111111001100010,
1111111010010101,
1000010100,
1111111010001010,
110001,
1111111111101100,
101011001,
1010100000,
1000100100,
111100001,
1111111011001011,
11001100,
10101110,
1111111011001111,
100010110,
10101000001,
1111111101011101,
11010010,
100000100,
110001011,
11100010,
1111111101110100,
1111101011101101,
1111111111011100,
1111111111001000,
101000111,
111110110,
1001111011,
1111111111010010,
100001,
1010111010,
1111111110111111,
100,
10110111,
100011111,
100100010,
1111110000001110,
1001101101,
1000100011,
1111110110100011,
100101000,
1111111001111101,
1001000101,
1110,
1100,
1010111110,
1111111110101111,
1111111101101011,
11100111,
1111111000000101,
1111111001001101,
100111011,
1011101010,
10010110111,
1111110111011010,
110100,
1111101110001101,
1111111110011011,
1111110101111001,
1111111100101110,
1111110100110011,
1111111101111101,
1111111111111011,
1001110,
10000010100,
1001011000,
1111111110111010,
101100000,
11100100,
1111111111110100,
1111111100110001,
110010001,
1111110111001101,
1111110010111000,
11111101,
1111110011100111,
1111111001100011,
1111111101110011,
1111011100,
110010101,
1111110011001001,
1111111111000111,
11011,
1111110101101011,
1111111101000110,
110101001,
1111111011100101,
11100,
1010001110,
1111110111110110,
1111110111100010,
1111111001001010,
1111111000001000,
1111111111100001,
1111111001110010,
1000111,
10010001,
1000110001,
10011110,
110011111,
1111111110100000,
1111110100001011,
1111111001100001,
100110011,
10000110000,
1111111001111010,
111100110,
1111111111000100,
1011001000,
10011000,
1111111001100101,
111110100,
1111111110111100,
101111,
1111111111100101,
1111111011001001,
1001100001,
1111110111011000,
1111111000010010,
101001010,
1111111011111001,
1111111111111101,
1101000100,
1010010111,
1111111101110110,
101000100,
1011101,
111111111,
1101011000,
1111111110000011,
1111101110110101,
100111,
111011000,
110110110,
1111111101100010,
1101000101,
1111100110101010,
101001,
100011011,
1111111111001101,
1111111101101100,
1111110100011000,
1111110011111011,
1111111011001111,
101000011,
1111110000011011,
10100000,
1101101110,
111100111,
1111111111110101,
1111111011001000,
1111110101001100,
1000110,
1111111111011111,
1111111000001101,
10011000,
1001000011,
101011100,
1000010,
1110010011,
10110100,
1111111011110111,
1111110010000110,
11110001,
1111111100111111,
100011000,
1111110011010111,
1001110000,
1111111110011100,
11101000,
1111110111111000,
1111111011001011,
1111110101000110,
1111111101110001,
1010100,
10010111,
1111111110001001,
11101101,
1111111011111010,
10011111110,
1000110101,
1100001000,
11101011,
10100111,
1111111100000110,
1111101110011111,
1111110110001100,
1100110111,
100110011,
11100011,
110100101,
1111111110001011,
1111110100000111,
1111110001101011,
1111111110101110,
1101110,
1111110101101010,
1111111001111110,
11000101,
101001100,
10000000010,
1111110111110010,
110100,
1101101011,
1111101110011110,
110101111,
10100011,
1111111101011000,
1111111011010001,
1000101110,
1111110111000101,
1000001001,
11101011,
10110000,
1111111110101100,
1111111111110011,
1111110011110001,
10101001,
1111110100111101,
1011100101,
1111101101111001,
1111110110101011,
11001111,
1111111001110001,
1111111110010011,
1101101110,
1111101111111100,
101111001,
1111111100011011,
110010111,
1111110100001101,
10000010,
100100101,
1111110010101010,
1111110010000111,
1111111010000110,
1111011010010011,
111011110,
10001001001,
1111111100101011,
100001010,
1111111000010110,
1111101110110000,
1111111101011011,
1111111011100110,
1111111011000111,
1101110,
1111110110010100,
101010000,
1111111110011101,
111010,
111110100,
1111111111000101,
1111111100111010,
1010001101,
1111111001110101,
1001001,
1111101001101110,
1111101101111100,
11111010,
11010000,
1111111110101011,
1111111011100000,
1111111100000111,
11111010,
1111110101010101,
10000011,
1111111000000110,
1111110010100000,
101001,
1110010010,
1111111000010100,
1111111011000000,
1111110000001011,
1111111011100110,
1111100011110000,
1111101111010001,
101010011,
1000001111,
1111111101111110,
1111111011001111,
1111111101110001,
111101010,
10110100010,
1111111010111110,
100110000,
1111111011101111,
10001110,
1111110100100110,
1111101110000000,
1111110111000000,
1001000,
1111111100010100,
1111111001011011,
1111110101100100,
1111111000011100,
1111111101111111,
1111110110010000,
1111111011010101,
10111011,
1111111001110010,
1100100000,
10011000111,
100010001,
1111110111011011,
1111111101110101,
101110101,
1000001100,
1111111000111100,
1111111101000100,
101011100,
1111110100100100,
1111111010111011,
10111110,
10001000,
111100,
1111111010111100,
1111111001010110,
100001,
1111111110010011,
1111111101110010,
1001110110,
110000111,
100010110,
1011000010,
1111110100000001,
1111110101010111,
1111110110110010,
1111111100111001,
1111110001010110,
1011110001,
1111111101001100,
111111111,
1111111001010111,
1101110011,
100011001,
10010,
1111111011101001,
111010,
1011111101,
10000111,
1111111110011101,
1111111110000101,
1101111,
1111110001110010,
1111101010011011,
1111111111000111,
11101111,
111111111,
1111111000101000,
1111110110001101,
10000001,
1000011,
1111110010101000,
1011101111,
101011110,
1100011,
1111110100011111,
1111111111000001,
1111101110001001,
1111110101010110,
11100111,
110000100,
1111111101000001,
1111110100100110,
1010001000,
1111101001001111,
1111111110000001,
1111111001101111,
1010101010,
11101011,
1111111110100100,
1111111001011001,
1111110100101011,
1111111100100000,
1111111001010111,
1111111100100100,
1111111010101011,
1111101101001011,
1111111111110110,
111001101,
11110100110,
10001010,
11111001,
1111111110110010,
1111110110111001,
101100001,
1111110111001010,
1000100111,
10000001010,
1111111000001110,
1111111111110101,
1111110011110101,
1100001000,
1011011001,
1111111100101101,
10011001001,
1111111011001100,
100111000,
10001010000,
110100011,
1010001101,
111011011,
1111110111101100,
11101111,
1111111101100110,
1111110000011001,
10101100,
1111111100101111,
1100111110,
1111110010000101,
101001000,
1100000101,
1111111110110000,
11000000,
101100000,
1111110100000101,
1111110111110011,
1111110110010000,
10100110,
1111111101011000,
110101111,
10001010,
1111111001001010,
1111111010000111,
1111100,
1111110110100100,
1111111011101100,
1111111100101000,
1111111111110101,
1111111011111110,
1111111000010000,
101001011,
1111111110110011,
1001010110,
1111111111010101,
1001011,
1001100000,
1111110001101001,
11010,
1110011110,
1000100111,
1111111001110000,
110010001,
1000110011,
1111111101011111,
1111111010100011,
101101000,
1111110110100100,
1001110111,
1111111000001001,
101010011,
1110110000,
111111000,
100010000,
10010010,
1010010101,
1111111000111101,
1111111011111101,
1111111000000010,
11100101,
1111110111111001,
1011001010,
1111111011111111,
101110111,
100111010,
1010011000,
1010010100,
1000101011,
10010001,
1111111011111101,
11101001,
101011101,
1111110001101011,
1111111101110101,
1111111110000100,
1111110001010011,
101111000,
1111110100110010,
1111110110010110,
1111011110,
1111110111110110,
11100011,
10110010001,
111101100,
1111110001011010,
1101000,
1111110110000100,
1110101,
1111111011001001,
10011010,
1101000011,
1100100010,
11100001,
1111111010010100,
1111111011000110,
1111110001111101,
1111110111011001,
1111111010111001,
1111110101110000,
1111110101101011,
1111100100111000,
1111111110100010,
1111111010111001,
110110010,
100101111,
1111110101111110,
1111110011001001,
100010001,
1111101000000100,
10011010,
1111111101001011,
100000011,
1111111110000111,
1011010001,
10001110,
110101101,
1111110010011000,
1111110111101000,
1000110111,
10111111001,
1111110100101110,
1110011010,
1111110010110010,
1111111110011010,
1101011110,
1111110110100110,
1111111010011101,
101,
1111111010000011,
10101101111,
110010,
1111110111010100,
111011,
10010100,
1100100110,
10110101,
1111101111110011,
1111111111011010,
1111111010101011,
1111111111001011,
1110001,
1111111000111101,
100000001,
1111111001000111,
1111110100001100,
1111111110111110,
1111111010001010,
1111110101100000,
1001010111,
101011,
10110110,
1111111010100111,
1111111111110010,
1100001011,
1010,
1111111001000000,
10010100,
1111110111101010,
11010,
1000000101,
1111111100110100,
1111111100010010,
1111111011000100,
1111111000111110,
1111111011010000,
100111100,
1111110100000011,
1000011010,
1000001,
110000000,
1111110011111000,
1111110101011100,
1111110101101000,
1111111101010001,
1111110110101010,
1111111000111000,
11100111,
1001110,
1111111001110001,
100100,
11100000,
1111111000010111,
11010,
100010101,
10011010,
10100,
101111111,
1111111011111100,
1111101,
1111110111000001,
11110010,
1001101,
11011011,
1111110101101110,
1111110001011001,
1111110101101101,
100000000,
100110110,
1111101101001001,
10111,
100010100,
1111110001010110,
101011,
100000000,
1010001,
1010001101,
1111110100111101,
1111110111000010,
10000010110,
1111111000000000,
11010010,
1111111010101011,
1001100101,
1111111100111011,
1111110111010110,
1111111010100110,
101011111,
1111000100,
1101010010,
1111111111111001,
1111111011111000,
1000101111,
1111110111011011,
1000110010,
110111010,
11101010,
1111110000100101,
1111110100011100,
100110,
1000110110,
1111111000010111,
1111110011011110,
1111111110110000,
1011001,
1111111110101110,
111100110,
1111111111011000,
1011110001,
1111111010001001,
111011100,
1110,
10000010,
1011111101,
1111111010110010,
1111111100010111,
1111111000101110,
1111111100001100,
1000111110,
1111101110110011,
1100001,
1111111011011101,
1111110001010101,
1111110111111100,
1111110000110111,
1111111100101011,
1111110000001011,
1000001001,
1111110011001000,
11010110000,
1111111110110010,
1111110111110111,
1111111110111001,
1110110,
1111111110101000,
1111111110001011,
1111111111011000,
1111111100100000,
1111111110110110,
1111101000,
1111111101110001,
1111110100011100,
10110001,
11001110,
1000001100,
1111110110100010,
110100000,
1000100101,
1111111110100001,
1111111111111111,
100100110,
1111110000000011,
110011010,
1111101111001010,
1111110111101101,
1111111011111101,
1111111111101010,
1111101000000101,
1111111111011100,
110010,
1111111000110010,
1111001111,
1111111111101000,
1111110100111110,
1001101011,
10001101,
1111110011100000,
101111010,
1111100110100111,
1111111111000011,
1000001011,
101011100,
110001001,
110111,
1111111010100110,
10000001001,
1111111100011110,
10100010,
101001110,
1001101101,
1111111101000101,
1111000001,
1111110011101011,
1111111011001110,
1111111101101110,
1111111111001011,
1111101111100111,
1111111010010110,
1111111010101010,
1111111010110010,
1111111100101110,
1111111011100010,
10000011101,
1111111010101110,
1100011100,
1111111000011100,
101001010,
1111111000010000,
1111101010100111,
1111110100110010,
1111111111110110,
101001101,
1111111001010101,
111010001,
101110110,
110010110,
100110,
1001000,
1111111001011000,
1111111110001010,
1011110,
1111111100110000,
1100100100,
1101100,
1111111101010111,
10110111011,
110100111,
1111111100100010,
1001110001,
10000,
1111111000101001,
1111111001110001,
1111111110010110,
1111110110111010,
101000011,
1111101111010110,
110111111,
110110101,
1111110001111000,
1111111011110000,
1111111011000111,
101101011,
1111111100011010,
1111101111100101,
1111101110011111,
1111111111010101,
1111101100010011,
11,
1001110011,
1100110011,
10011101,
1111111100100001,
110111111,
1111111000110010,
11010100,
1111110010001100,
1111111110100001,
1111110101011111,
1111101011,
100101100,
1111111111110000,
11001010,
1111111011010101,
1111110101101110,
1111111110010010,
1111110010010001,
11,
1001011100,
100011110,
1111110011011101,
1111101110010011,
1111110110010001,
1111111010100111,
10110001,
100010111,
1111111011111110,
100010110,
1111110110100000,
1111110111000100,
1111110010101111,
1111111001010111,
1001001,
1111110001000111,
1000001,
1111111011000110,
101100000,
1111111111110111,
1111110010111111,
1111110100011111,
1111111001011100,
1111110000000100,
1111111100001000,
1101100101,
10100001111,
110111110,
1111111011000010,
1111110110010001,
1111111010101100,
10100001,
100010101,
1111111111100100,
101101,
11001101,
1001111011,
111001100,
1001101011,
1111111100011000,
1111101111101010,
1101,
1001001101,
11010101111,
101010011,
11101001100,
1111111110010011,
1111111000010100,
10011011010,
1111111100110111,
1000000010,
1110011,
1111111111010010,
1111111101101001,
1011101110,
1111110111100110,
1111111110001100,
1111111011111010,
111001001,
10100101010,
1111111011000010,
111011100,
1111110100110000,
101110001,
1101001011,
1111110110100001,
111001110,
111010000,
10110111,
1111111001000111,
100010110,
1111110101101100,
1111111000110100,
111101,
1111111110000111,
1011111100,
10100010100,
1000011011,
,
111010000,
101000001,
1111000101,
1111111100110111,
10100110,
101001010,
100011,
1001100011,
1111110100001111,
1111111111101010,
1011100111,
1111110110000110,
1111111001101100,
100011000,
100010011,
1111111100111110,
1111111101100100,
101101110,
1111110110001010,
11010111,
11001,
1111111011110010,
1111111100010001,
1111111000100011,
111010101,
1111111010001110,
1111111001100101,
1001000111,
1111101110111111,
10110110000,
1001110111,
1111111110010101,
1111110110010010,
1111111110110011,
1111111101101010,
1111111010110111,
1111101110000101,
111100110,
1111111010000100,
1111111110010101,
1111101110001111,
1111111011100111,
1111111111010000,
1111110110001100,
1100110011,
1101101111,
1111110110010001,
1110010000,
100,
100001001,
1111111010001111,
1111111100000010,
1111110001000111,
1100001110,
1100001110,
1111111011011010,
110000,
111110100,
1111111111011100,
111100010,
100011000,
1111111001110001,
1111110001110000,
11000000,
1111110110011000,
110110001,
11110101,
1111110010100110,
110100100,
1111111110111111,
1111111100100110,
10011011,
1000110110,
1111111100101001,
1101110,
1010101100,
1111111100011110,
1101011000,
1111110101010000,
1111111111111110,
1111110111111100,
1111111011110101,
1111101001011101,
110011000,
1100001101,
1100011,
1111110011111101,
1111111001111100,
10100001,
1111111010110110,
1111111000100001,
1111110011000000,
1111110011010101,
1001101111,
1111111001111101,
1001000111,
1111111101110100,
1100101011,
1111111000000101,
1111110001101110,
1111111110000010,
1111111101001110,
1111110110101100,
100100000,
10101011,
11000011111,
110110101,
1100010010,
10011101000,
1111111011100011,
111011100,
1111000010,
1000000001,
100001,
1111101111001000,
1111111011000111,
1111110110011000,
1111111001010111,
1111000,
11001,
1111110001010011,
1111111101100010,
1111111101101100,
11001101,
1111110011111110,
1111111110100000,
1001100101,
1111111010000110,
1111101010100110,
1111110001100011,
110010100,
111000,
10010001010,
10010010111,
1111110101001111,
1001110011,
1100101101,
1101101,
1111111110100111,
110010101,
1111101110010110,
1111111000111111,
1111101101100110,
1111111110111010,
1111101110010110,
1001101000,
1000101101,
100011010,
1100110100,
1010011000,
1111111010101010,
1111111100100111,
1111111110000001,
1111110110010111,
1111111010010111,
10011000000,
1111111001101110,
1100010000,
1110100110,
1010100010,
1111111011110101,
1011010101,
,
1111111011000100,
1111101010011100,
1111111010101110,
1111111001110110,
10110000,
1111111110110011,
1111110110010100,
1111101110111011,
1111101001110000,
1111111100011100,
1001110000,
10001101,
1111111001011100,
1111110110100110,
11011011,
1111111001010110,
1001101010,
101101010,
1111110011101111,
11100000,
1111101110001011,
1011000100,
1111111111101010,
1110100111,
1111111111000101,
1111110000011111,
1100010000,
100111,
1111111001101011,
10000000110,
1111110000101111,
1011000011,
1111111100100010,
10010101101,
1011101100,
11000111,
10011011,
1111111111101101,
1111111110111111,
110001111,
1111110100010100,
11111011,
1100,
1111110110001101,
1111111011101110,
1111111011100111,
1111111001011010,
1110111111,
101000010,
1101000000,
10000010010,
1111110011010010,
1111111101000000,
1111111011000101,
1111110100101000,
100011,
1111111001111011,
110010111,
1111111000011110,
1011110100,
1000,
1000001,
1111101100010001,
1111111101100100,
1111111010110111,
100100000,
101001100,
1111110101111001,
1111110100010011,
110100110,
1111110011001100,
1111111111110011,
1110100101,
1111110010001011,
1101010000,
1000111010,
101110101,
1011001101,
10110001,
1111110111101011,
1111111011001010,
1111111110110101,
100011110,
1010110000,
110101110,
1010110,
1111110100001111,
11001101,
1001100011,
1111101000110011,
110001110,
1111110000100101,
101001010,
1111111001000011,
1001110,
1111110110111001,
101001,
10100101010,
110000001,
1111110101010000,
100011,
1111111000111110,
1111111110110101,
1111111110110010,
100100,
110000011,
110101110,
1111110000111000,
1111111000100001,
1111110101000101,
110011001,
10001011,
1111111101101011,
10100001,
1111111010111010,
1011000111,
1111111111101110,
1111111101011110,
1111111010100001,
1111110101010110,
1111111101001010,
1111111111101000,
