memory_initialization_radix=2;
memory_initialization_vector=
1111111111101111,
0000001001111000,
0000000101010011,
1111110110001011,
1111111010000011,
0000001001100111,
0000000100111110,
0000000110011011,
1111110100101101,
0000001000011100,
1111111111001100,
0000000110100011,
1111101010011101,
0000000001001010,
0000010101101101,
1111110000001101,
1111110100111011,
0000000000000000,
0000010011010011,
0000000100101000,
0000000111111011,
0000000101110101,
1111110100011100,
1111111101000000,
0000000110000101,
0000001100111101,
1111101100101101,
0000000000000001,
0000000100011111,
0000000101000011,
0000001101010000,
0000000100010100,
1111110111011101,
1111111010000110,
1111111101010010,
1111111010111000,
1111110101010001,
0000001101110111,
1111110100101111,
0000000011110100,
1111100111101101,
0000000101010111,
0000011100110010,
0000000101011000,
1111110100111111,
0000000111100010,
1111110110000111,
1111111001000011,
1111110011010010,
0000001100100001,
0000000111110001,
0000001010010011,
1111110010010001,
0000000000100000,
0000001010010000,
1111111110010000,
1111110001001110,
0000000000101111,
1111111100010110,
0000001001101110,
1111111010101101,
0000001010100001,
0000001011111011,
1111110000011010,
0000000001010101,
0000000100010100,
1111110000000110,
0000000101110111,
1111110100110100,
1111110011010011,
1111101111000001,
0000001101000111,
0000001010011001,
0000000001000001,
1111111001100111,
0000000101000011,
1111110111100001,
1111111100111111,
0000001100011110,
1111100110101111,
1111111110101000,
1111110011100010,
0000001010000001,
0000000011001110,
0000000101001111,
1111101111011001,
1111111100111111,
0000001010000110,
0000000011100000,
0000000101010001,
1111110110100000,
1111101011010111,
1111111110110010,
1111110101000101,
0000000110101111,
0000001011000110,
1111111110001101,
1111110010011100,
1111111001011101,
1111110000001101,
0000000000001000,
1111110001011110,
0000000111101001,
0000000000111110,
1111111110001100,
0000000011010110,
1111111011100000,
0000000100100010,
0000001000111010,
1111110110111011,
0000010001001100,
1111101100011001,
1111101111011111,
1111111110001100,
1111111101001101,
1111111011100111,
1111111111011001,
1111111111100010,
1111111001101010,
1111101100101000,
0000001100111001,
1111111011110111,
1111111010101100,
0000000000111001,
0000000010111010,
0000001011001110,
1111110110100110,
1111110011001100,
1111110101101110,
1111111011001010,
0000000101001001,
1111111111110101,
1111110111110101,
0000001100110010,
0000000011110101,
0000001001111001,
0000000110011101,
0000001010011100,
1111110111000001,
1111101111100111,
0000001101000101,
1111111101001001,
0000001011111110,
1111110111110101,
0000010011001000,
0000000100111000,
1111111100001100,
0000001001011000,
1111110111001100,
1111111100000001,
1111111011001101,
1111111101011010,
1111111100000101,
1111111111110110,
1111111000000001,
0000000011010011,
1111111011111110,
0000000001001001,
0000001010100001,
0000001110011010,
1111110111111101,
1111111010101101,
0000000010010110,
1111111110010011,
1111110011010000,
0000001110110111,
1111110110001100,
0000000101111111,
0000000100101101,
1111111001101100,
1111110111001010,
1111110111100111,
1111111000000011,
1111111100001000,
0000000101001000,
0000000000010010,
0000000011000010,
1111111111001001,
1111110110110110,
0000000010011011,
0000001000111110,
1111110110101010,
0000000010110101,
0000010010110000,
0000000110101100,
1111101101101010,
1111111000001011,
0000001000110000,
1111111100110011,
1111111011100010,
0000000101001101,
0000000011000000,
0000001100110100,
0000000110001011,
1111111110000100,
1111110101101000,
1111110000010000,
1111110110010100,
0000000000011010,
1111110111110010,
1111111101110000,
1111111111000101,
0000000011000100,
0000000000001010,
0000000011110101,
0000000000010100,
1111111011000001,
0000001001000101,
1111111101011100,
1111110100000001,
1111110000000111,
0000000110100101,
1111110111110110,
0000000011011011,
1111110001111110,
1111111111011000,
1111110111011001,
0000000000111010,
0000000010001110,
1111110011111100,
0000001101110000,
0000000111101110,
0000001011000000,
0000000111100110,
1111101100101110,
1111110011010110,
1111111101001100,
1111111110010100,
0000001100100101,
0000000000111110,
1111111001001011,
0000000111000000,
1111110011110011,
1111110000011000,
0000000001111011,
0000000101000100,
1111111011001010,
0000000101101011,
0000000001111101,
0000000111000001,
0000000011100100,
0000001001110010,
1111111010101111,
0000000101111111,
1111101111011011,
1111110110111001,
1111111010101011,
1111111101101100,
0000010001100110,
0000010001110010,
0000000010100000,
0000000110000111,
1111111110101110,
1111111011010010,
0000001100110100,
0000001001111101,
1111111001011001,
1111111011100010,
0000001011010111,
0000000010011010,
0000000001111000,
0000000110001100,
0000001000001101,
1111111010000110,
1111101100000101,
1111110111110111,
0000000111001001,
0000001001101100,
0000000101111100,
1111111010011011,
1111111101011100,
0000000000011011,
1111110100010010,
0000000110001100,
1111110110000100,
1111111001101100,
1111110110111010,
1111111100011101,
1111111110111001,
1111111000101010,
1111110110101011,
1111110011100000,
0000001100001000,
0000000000000111,
0000001101000111,
1111100111111000,
0000010010111010,
0000000000111110,
0000000100011111,
1111111100100100,
0000000101100000,
1111110010000011,
1111111100010001,
1111110101110010,
0000001000011000,
1111111111111011,
0000000010110011,
0000000010110111,
1111111011000101,
1111111110101101,
1111110111000000,
0000010001011101,
1111111100111010,
0000000010110110,
1111110010101001,
1111110110100110,
1111111100001000,
1111110101010101,
1111101111011010,
0000000110011110,
0000000010101011,
0000000001001001,
1111110110100110,
0000001000001100,
1111111111011010,
0000001100010111,
0000001001010010,
1111111111001100,
0000000000001101,
0000001100011111,
0000000110110110,
0000000110010100,
1111111000111101,
1111111110100011,
1111111101101111,
0000001100110110,
1111101011001101,
1111111001101100,
1111111010011001,
1111111110001110,
1111110000100011,
1111111110000000,
0000000001001001,
0000000110001101,
1111111001110111,
0000000010000011,
1111111101001001,
0000000011100000,
0000000001100110,
1111111110100000,
0000000001101100,
0000000111011001,
1111111100100000,
1111111110110011,
0000000011100100,
1111111001001000,
0000000100011110,
0000001001100110,
0000000000010110,
1111101100110000,
0000001111000100,
0000010010111101,
1111111011110001,
1111111010001010,
1111110011000000,
1111111101111101,
1111110100111110,
0000001011111000,
1111111000100111,
0000000010001110,
1111110011010011,
1111110000011011,
0000000000010011,
1111111110011011,
1111100101111100,
1111111011110100,
0000001111100111,
0000000010101110,
0000000010000111,
0000000110110110,
0000000010011001,
1111111000111000,
0000010011101000,
1111110111111101,
1111111100001101,
1111110010011011,
0000000001111001,
1111111111001001,
0000000100101000,
0000001000000011,
0000000110011101,
0000000001110101,
1111111010111101,
1111101111100000,
1111110111001001,
1111111100001101,
0000001011001110,
1111111000101000,
1111111111010110,
1111110111010111,
0000000010111001,
0000000101110101,
0000000001111011,
0000001011000000,
0000000110010010,
1111111010001101,
1111111110011011,
0000000100010100,
1111110111101010,
1111111101011101,
1111111111111010,
1111101101000011,
1111111001011000,
1111101110001111,
0000000101100100,
0000000000001000,
0000000101110101,
1111110111010110,
0000000101000011,
0000010001010000,
0000000010011001,
1111111001111110,
0000000001001101,
1111111010101001,
0000000000001001,
0000000111010010,
1111111011101010,
1111101011110110,
1111110110010010,
0000000010000111,
0000001100011001,
1111111011000011,
1111111111101010,
1111111011011101,
1111111011001101,
0000000010111000,
0000000010000001,
0000001001011000,
1111111011001111,
1111110101000000,
0000010001101101,
1111111000111101,
0000000000011000,
0000000010001100,
0000001000100000,
1111111101110110,
0000000101111110,
0000000110101011,
1111111001000100,
0000000000001000,
0000001100110101,
1111111000000010,
0000001011111001,
1111111010011100,
1111111100111011,
0000001010001101,
0000001110110111,
1111110100010000,
0000000100011000,
1111111111100110,
0000001001101101,
1111101100010111,
0000000000001011,
0000000111101000,
1111111101000101,
0000001011010011,
0000000110001011,
0000000010011111,
1111111011100011,
1111111000100100,
0000001100011000,
0000000010101010,
0000000010110000,
1111111101000100,
1111110111101010,
1111110100110011,
0000001001111111,
1111111000010010,
1111110010101011,
0000001010111010,
0000001101110110,
1111101110011110,
1111110110000110,
1111111100000010,
1111110100100010,
1111111001100001,
1111111001110000,
0000001111011110,
0000000001010000,
1111111110001000,
1111110101011100,
1111111110100111,
1111111101001001,
1111111010110010,
1111111011001010,
1111110010001110,
0000001000011100,
1111110100001111,
1111111100001001,
1111111111011001,
0000000100110010,
0000000100011111,
1111111001000000,
0000000001110101,
1111111111110110,
1111110111100101,
0000001010001010,
1111111111100110,
1111111110011110,
0000010010000011,
0000000001110010,
0000000001010101,
0000001001111001,
1111111101111101,
1111111011011100,
1111110001101000,
0000000111100100,
1111111111101011,
1111101111111100,
1111101111100010,
0000001101010000,
0000001001110111,
1111111110111110,
0000001101000010,
0000000011100101,
0000000011100001,
1111111110100011,
0000000001110000,
1111110110010011,
0000000101010100,
0000000010100000,
1111111111010110,
1111110110110110,
1111110111000000,
1111111110010000,
1111111011001001,
0000001000010010,
1111111110111101,
1111111100111100,
1111111011011101,
0000000000101001,
1111111110000011,
0000001010010100,
1111111110110010,
0000010010100110,
1111111001010000,
0000010100010011,
0000000001000010,
1111111111111110,
1111111110111101,
1111111000000101,
0000001001011001,
0000000100101001,
0000001000101000,
1111110101010111,
1111110010000001,
0000001001010100,
0000000001100101,
1111101101011101,
0000000001111110,
0000001000000101,
0000001111010000,
0000000000100011,
1111101000010111,
1111111001111110,
0000000011001101,
0000000001111111,
1111111000010010,
1111111111011101,
1111111000010001,
0000001001010011,
1111111110100100,
0000000111011000,
1111111000010000,
1111111011000101,
0000010001111001,
1111111100111001,
0000000001100000,
1111111011000101,
0000001100010010,
1111101110111100,
1111110000000101,
0000001011101001,
0000000100010100,
1111111001001011,
0000000110010110,
0000000000010001,
0000011000001001,
0000000011011110,
0000001011100011,
0000001111111110,
1111110110001000,
0000001110110110,
0000000010000110,
1111111110011011,
1111110111001101,
1111111111100000,
0000000001110011,
0000010001011000,
0000000001101010,
1111111100101011,
1111111010101001,
0000000101101011,
0000010101110100,
1111111101000000,
0000000100111110,
0000010011010011,
0000000101010010,
0000001010000110,
1111111000010000,
1111111100100101,
0000000001101101,
0000000001110010,
1111111001000110,
0000000100111111,
0000000010010110,
0000000110111100,
1111111111011011,
1111111111111001,
0000001000001101,
1111111011111100,
1111110001100011,
0000000101011010,
0000000000011011,
1111111100000011,
1111111000001101,
1111111001100011,
0000000001001001,
1111111110101011,
1111110010101011,
1111111111001001,
1111110101011011,
1111111101111001,
1111110011011010,
0000000010111110,
0000000000010111,
0000000001000100,
1111110111101010,
0000000101011111,
1111101001000100,
0000001011001101,
0000000101110000,
1111111001001101,
0000001100101111,
0000000010000100,
0000000011110000,
0000001001000101,
0000001000101010,
1111110101100010,
0000010000101000,
1111111011110011,
1111110111010100,
1111111111101100,
0000001000001111,
1111110011110011,
1111111010110001,
1111110110001011,
1111110100101111,
1111111000000111,
1111110111100000,
0000000110011111,
0000001011010000,
0000010101110110,
0000000001011010,
1111111011111110,
0000000000110000,
0000000000101100,
1111110100001011,
1111111010000101,
1111101101000111,
1111111101110011,
1111110110001011,
1111111011110010,
0000000110010101,
0000001001001001,
0000000001000101,
0000001001110110,
1111110100100100,
0000010010110001,
1111100110111110,
1111110001000111,
1111110110001111,
1111111100010111,
1111110000100010,
1111110111011111,
1111111010111001,
1111110011000111,
0000000011110110,
1111111010011101,
0000000011110111,
1111110111000011,
1111111110101010,
0000000010011010,
0000010010110011,
1111111110111000,
0000010110101011,
1111101011100101,
1111111110001110,
0000000101001000,
0000010000000111,
1111111000111001,
1111110111011011,
0000001011110110,
1111111110110110,
0000000101010000,
1111111010111000,
1111111111110001,
1111110110100110,
1111111010111101,
0000001100111010,
0000000111101010,
1111110010101100,
1111110110100101,
0000011100100100,
0000000010001101,
1111110101100111,
0000010010110111,
0000000000110100,
0000000101110110,
1111111111011101,
1111111110100100,
0000000001110001,
1111110101110100,
0000001000011000,
0000010100000100,
0000000011000111,
1111110111110010,
1111111011000101,
0000000100000000,
1111111111101101,
1111111001001001,
0000000111110111,
1111111111111110,
1111111011000111,
0000000110001101,
0000000011010010,
1111111101001111,
0000001111001111,
0000000011101100,
0000000011111110,
0000000001010001,
0000001010100110,
0000001000011001,
0000000010010010,
1111111000011100,
0000000000110100,
1111110010100111,
1111111101100001,
0000001110010010,
1111111111000000,
1111111001101000,
1111111100011000,
1111111011010100,
1111111001011011,
0000001010000110,
1111110011110101,
1111110010010110,
0000010001001010,
0000001010001000,
0000000011011000,
1111111111100100,
0000000101101100,
0000000000001111,
0000001101111000,
1111111100000111,
0000001010100000,
0000010001000100,
0000000101101110,
0000001111010100,
1111111000110100,
1111111001001001,
1111111101000001,
1111110111110101,
1111111000100111,
0000001111101101,
1111111110011001,
1111110110111110,
0000000001110000,
0000001011011111,
1111111100100011,
0000010010101001,
0000000101101111,
1111111000011110,
1111111110000101,
1111111100011110,
0000000000000101,
1111111111111001,
0000000100111011,
1111111001100000,
0000001001110101,
1111111001010110,
1111110111111100,
1111111111000011,
0000001010110010,
1111111110101111,
0000000001110110,
0000001100000110,
0000000001100010,
0000010001100001,
1111101110001110,
0000000010011100,
1111110101011001,
0000000100011010,
1111110100011100,
0000001011000000,
1111111001111110,
0000000101011000,
0000001100011001,
0000000101100001,
1111111100010010,
0000000000101011,
1111111000110000,
0000000011000111,
0000001111110111,
0000001001000001,
1111111101101010,
1111111101101001,
1111111011000010,
0000000101111010,
0000000100101101,
0000000001000001,
0000010001111001,
0000001010011101,
0000001010011110,
1111110101000000,
0000001010110100,
1111110011011010,
1111111100111001,
1111111010100001,
1111110110000011,
0000001101101001,
1111110110110011,
0000001110001111,
1111111101100000,
0000000101111011,
1111110111110011,
0000001010011011,
0000000011000100,
0000000101001101,
1111111010001100,
1111110010100001,
0000001000011010,
0000000001010111,
1111111001000000,
1111111010101111,
0000001101100001,
0000000010000110,
0000000011100000,
0000000000110011,
0000000110001000,
0000000001101110,
0000001110111100,
0000001000110110,
1111111111000000,
0000000001100111,
1111110111011011,
0000001100000000,
1111101101010110,
0000000001010100,
0000000111100000,
0000000000100101,
0000001110011010,
0000000101111000,
0000001001100111,
1111111111010110,
1111111011101101,
1111111011011010,
1111110111010101,
1111111100100011,
0000000111000111,
0000000111101111,
1111111110111000,
1111111111000011,
0000000001100000,
1111111111100011,
1111111000110100,
1111110110100000,
0000000010001001,
0000000011111100,
1111111100011111,
1111111001000100,
1111111011111111,
1111111110110100,
1111100010111000,
0000000101111010,
1111110011001011,
1111110111011011,
1111111111110001,
1111111000001010,
0000000110110111,
1111111100000100,
0000000001111000,
0000001011010011,
0000001100110111,
0000001110000000,
1111111101101101,
0000000111101100,
0000000001111010,
0000000110010001,
1111111110111100,
0000001001101010,
0000000100010011,
1111111110010001,
0000001001101100,
1111111111010001,
0000001011101101,
0000000001011000,
1111110011001100,
0000001100111100,
1111111010100011,
1111111001011001,
1111111010111010,
1111110111001100,
0000001011101001,
1111111111100010,
0000000101001111,
1111111000100011,
1111110001010110,
1111111001010010,
0000001001001001,
1111111101010000,
1111111010100111,
1111111010010101,
0000000001100100,
1111111100101011,
0000000100111111,
0000001110000010,
1111101001111110,
0000010110001110,
0000000000000111,
0000000100000010,
1111111000010011,
1111110110000111,
1111111011000111,
1111111010101001,
1111101101010000,
0000000100001001,
1111111110111111,
1111111101101010,
0000000100000110,
1111111110010010,
0000000000001100,
1111111110100100,
0000000111100101,
0000000011111111,
0000000100011111,
1111110111100011,
0000001101011101,
0000001111101011,
1111110100110000,
1111111001110001,
1111111100001011,
0000000000000001,
0000001001000010,
1111111111100101,
1111110100111101,
0000000000010110,
0000011000110111,
0000000010000100,
0000000001111001,
1111111011101101,
1111110111101101,
0000001001110001,
1111111110001101,
0000010110110000,
1111111110100101,
1111111111101111,
1111110010110010,
1111111110110100,
0000000010110111,
1111101110100110,
0000000100001111,
0000011001011010,
0000001000001101,
1111111000111011,
0000000101111001,
0000000011010001,
1111111100101011,
1111110101101000,
0000001010110111,
1111111111011001,
0000000111110000,
0000001010001100,
0000000001100100,
0000000001010111,
0000000101111100,
0000010110000110,
0000000110110100,
1111111111101111,
1111110010111100,
1111111110101000,
0000000100011001,
1111110111000001,
0000001110110110,
0000000000100111,
0000001001110010,
1111111001111001,
0000000111011111,
1111110110000000,
0000000011010100,
1111111000111110,
0000010011000001,
1111111100010101,
1111111100010010,
0000000000110000,
0000000011111011,
0000000101001100,
0000000000100001,
0000001011110100,
0000000100101101,
0000000011111000,
1111111100111000,
0000010001101101,
1111110110010011,
1111111101110100,
0000000111011011,
1111111010001101,
1111111010100000,
1111110101000010,
1111111100110000,
0000000100011011,
1111111100001001,
1111111101111000,
1111111101110010,
1111111110011011,
0000000011001111,
0000000101000100,
1111110110001101,
0000001011101100,
0000001011111000,
1111110111001011,
0000000111011010,
1111110010101110,
1111110011001010,
0000001000100101,
1111111100011110,
1111111111111000,
0000000010011000,
1111111001100111,
0000001000101001,
0000000101010011,
1111111100100001,
1111110101001100,
1111110010101100,
1111111011001100,
0000000001001101,
0000001110111111,
0000000110101001,
1111111000100111,
1111111000111010,
0000000111000010,
1111110111000001,
0000000111001011,
1111111100100000,
0000010110011110,
1111111000011100,
1111101101100110,
1111110110110110,
1111111011011000,
0000000101111100,
0000000111001000,
0000001111101010,
0000001101000110,
0000000010111100,
0000010001001000,
1111110110100011,
0000000011110001,
1111111011011000,
1111111000001000,
1111111110101110,
1111111101010101,
1111111011110101,
1111111010101000,
1111111100001110,
0000000010011111,
0000000010001011,
1111111000101110,
0000000000011110,
0000010000100101,
1111101110001111,
0000001001000010,
1111101110111000,
0000001000111001,
0000000100010100,
0000000001010110,
0000010011101110,
0000001110110011,
1111111111011110,
1111111000011101,
1111111101000000,
0000000100001001,
1111110111010101,
0000001001100111,
1111111101101000,
0000010011100001,
0000000101000100,
1111110000001111,
0000000001001111,
1111111001111101,
0000001100001001,
1111111111110100,
0000000010011010,
1111110010100000,
0000001011101001,
0000010000001111,
1111111011000001,
0000010000111100,
1111110000000111,
1111111101011111,
1111110101100000,
1111111001111110,
1111111111001100,
1111111110000011,
0000000110111001,
0000001000100111,
0000000000000001,
0000001010010100,
1111111010111001,
1111111001101100,
0000000100111010,
0000000001000000,
1111110101110010,
0000001000010011,
1111110001110110,
0000000011100011,
0000000010010111,
1111110000100110,
0000000000100100,
0000000010111000,
1111110001000101,
1111110101000100,
1111111111001010,
1111110111101101,
1111111111110111,
0000000110110100,
1111111111011001,
0000000011011111,
1111111110000010,
0000000011001010,
1111111101011011,
0000001001011100,
0000000010010100,
0000000111111100,
1111110111110011,
1111111110100000,
0000000111101110,
0000000010011111,
1111101100100000,
0000010100100011,
0000000101001100,
0000000000100110,
1111111101000011,
0000000101111110,
0000001111100010,
1111101110101110,
0000010010011110,
1111110110101111,
0000001010100000,
1111111111001101,
0000001001001110,
0000000011001001,
1111101101010110,
0000001000001010,
1111101110001110,
0000000101011110,
1111111110001011,
0000011000101000,
0000000111011000,
0000000001100000,
0000001110111100,
1111111010001101,
1111111111000011,
1111110110110111,
0000000010000001,
0000000011000000,
0000000011010010,
0000000110100000,
1111111101011001,
0000001010101111,
0000000000001010,
0000000011100010,
0000000110000111,
1111100111000100,
1111111100111011,
1111110100111001,
1111111101101111,
0000000101100101,
1111111000111011,
1111110100010100,
0000000000001011,
0000000110011101,
1111111101100110,
0000000100011100,
1111110011100001,
1111111100101111,
1111111101010001,
1111111100001111,
0000000010001010,
1111111001110010,
1111111010111100,
0000000101100000,
0000001011001011,
1111111100101101,
0000001001111110,
0000000100101010,
1111110101000100,
1111111100001101,
0000000001100001,
0000000101000111,
0000000100101001,
0000000001010001,
1111111001010000,
0000001001111101,
1111111001101101,
0000000000010111,
1111111110100110,
1111111111110010,
1111110100010011,
1111111010111010,
1111111110100111,
1111110000111011,
1111110101010001,
1111111001110110,
0000010100001100,
1111110101101110,
1111101110001011,
0000000101010100,
0000010011100111,
1111110111110110,
0000011000110010,
0000000000011000,
0000000101011101,
0000001000000100,
0000000001011110,
1111111010111010,
1111111111100000,
1111111101100000,
0000000101111001,
0000000101011010,
1111110111010110,
1111110100010110,
1111110010111011,
1111111101101010,
1111110110010011,
0000001011010000,
1111101011100001,
0000000111110111,
0000010010010010,
1111110110110010,
0000001110100010,
0000001101001101,
0000000011100110,
0000000000110010,
0000001100101001,
1111110001100011,
1111110011000001,
1111111000011100,
0000000001101111,
0000001100010000,
0000001000000111,
1111111011010101,
1111110011110011,
0000001101100000,
0000000000100101,
1111111111010100,
1111110011111001,
0000000000111011,
0000000100010101,
0000000010010000,
1111111010101000,
0000000010001110,
0000000110100110,
1111100011010000,
0000010101010101,
1111111110011010,
1111111100000111,
1111110100000011,
1111111110100011,
1111101101101110,
1111110111111011,
1111110011101011,
0000000010000000,
1111111001000101,
1111111100100001,
1111111010011100,
1111111101001100,
0000001100111111,
0000001000111011,
1111111101111000,
0000010011010111,
1111101111011110,
1111110111000111,
1111110101010111,
0000000110000000,
0000000100010011,
1111111111011000,
1111111101101101,
0000000110011100,
1111110100100101,
1111111101000100,
0000000101010000,
0000000111000011,
1111111010001001,
1111111110111011,
1111111011010011,
0000000001101010,
0000000010100000,
0000000000111010,
0000001110000100,
1111111010011010,
1111111110111010,
1111111110111111,
1111111000110010,
0000000000001111,
0000000010111100,
1111111101001111,
1111110111011111,
0000001011111011,
1111111000111011,
1111110110000001,
0000000001001000,
0000000000110011,
0000001110110100,
1111110111111100,
1111110111101111,
0000000100001000,
1111111101001100,
1111111010011011,
0000000100110111,
0000001110100110,
0000001000111010,
0000001001001100,
1111101100110000,
1111111010110001,
0000001111101000,
1111110100000100,
0000000010000100,
1111111110011110,
1111110010101111,
1111111100010000,
1111111000010000,
1111111010110111,
0000000001011000,
1111111101101001,
1111110000010100,
1111110001000000,
1111111100001110,
1111110110000111,
0000000000101111,
1111111110101110,
1111111110111111,
1111110110111101,
1111111101101001,
0000000101001011,
0000000101111001,
1111110000001011,
0000000101001100,
1111110000110010,
1111110011111011,
1111110110110110,
1111110100101001,
0000000111110100,
1111110010000110,
0000000000010001,
1111111001010111,
0000000011011001,
0000001100000001,
0000001101101110,
1111111010101100,
0000000000011101,
0000001100001011,
1111111110110100,
0000000000011100,
0000000001100100,
0000000010010010,
1111110011010000,
1111110100010011,
1111111101100000,
0000001111000001,
1111110001111111,
0000000010101101,
1111111001101000,
1111111100001100,
1111111111010100,
0000001000010000,
1111101010010111,
1111111010010101,
1111111001000111,
1111111001000100,
1111101111011001,
0000000010011110,
0000000110100001,
0000000110011100,
1111111110010101,
1111111001001010,
0000001011001000,
0000000110011010,
0000001011110010,
0000000110110110,
1111111010101101,
1111111101100000,
0000000001111011,
1111100101100101,
0000000000000101,
0000001001111101,
1111110101110100,
1111111010100011,
0000000101111110,
0000001101110100,
1111111101000100,
1111110111000111,
1111101001011000,
0000000011101100,
0000000001101001,
1111111100110001,
1111111101101101,
0000010100100111,
0000000111100100,
1111111111011000,
1111111100101100,
1111111110011101,
0000000001000011,
1111101101100111,
1111110010001111,
1111111111000000,
0000010001000011,
0000000011101010,
1111111011011101,
1111111010111011,
0000000110100011,
1111110101110010,
0000000101100000,
1111101000111011,
1111101111100001,
1111111011100010,
0000001000100000,
1111111111010011,
0000000111100000,
0000001000110011,
1111111010100111,
0000000010111000,
1111111101100101,
1111111001010100,
0000000101111000,
1111110011010110,
1111111100001110,
0000000001110010,
0000000000111111,
1111111001001110,
1111110100000110,
0000001111100010,
0000000100101000,
0000000100001010,
1111110010000101,
1111110010100000,
0000000000100011,
0000000001111111,
1111110111110000,
1111101110001001,
1111111110100000,
0000001110101000,
0000000110011101,
1111111001101110,
0000000111010011,
0000001001011101,
0000000111110001,
0000000011000000,
0000000110110010,
0000000100111000,
0000001001010000,
0000000110001110,
0000001011110110,
0000000001101111,
1111111101101101,
0000001000101010,
1111110010100010,
1111110010111110,
1111111011000110,
0000000111011100,
0000001010001011,
1111111101111001,
1111110100011010,
1111101111100000,
1111110110111010,
1111111101110101,
0000000111101001,
1111111110100101,
1111111000010000,
1111110010010100,
1111110001111111,
1111110100011010,
1111111101010100,
1111110011001001,
1111111101111111,
0000000110110110,
1111111001100011,
1111111000000011,
0000001011100011,
0000000011101010,
0000001001001001,
1111111110001100,
1111111000000111,
1111111010001111,
1111111010101010,
1111111001110100,
1111111110011101,
0000001001000110,
0000000001101101,
0000000100001100,
0000000000111001,
1111111000000110,
0000000110111100,
0000001110001100,
1111110011111000,
1111111001011001,
1111111111110111,
1111111101111011,
1111111011110101,
0000000011100111,
1111111110010001,
0000000011111101,
1111111011010011,
1111111000001010,
0000000101001011,
0000000110110000,
1111111001111101,
1111110001101110,
0000000110000010,
0000000101101111,
0000001111110011,
1111111001110011,
0000000000110001,
1111110011111101,
1111111101101011,
1111111010000010,
1111110101011001,
1111111100011111,
1111111011111010,
1111110100000010,
0000001010101101,
1111110000100100,
0000000110110000,
0000001010110110,
1111111110111011,
0000000111010011,
1111110001001111,
0000000000111011,
0000001001101100,
1111111101010011,
1111110100000010,
1111110101011111,
0000001001111110,
1111111011000111,
0000000111010101,
1111110010010110,
1111111001100001,
1111101110100010,
0000001010100111,
1111111010100010,
1111111010011011,
1111111100011000,
1111111100010110,
0000000000100000,
0000000110000101,
0000001011000110,
1111111001110100,
1111111010010111,
0000000101001110,
0000000101010110,
0000000110010010,
1111111000011101,
1111111111011001,
0000000001101001,
1111111010100110,
1111111011111111,
0000010000111011,
1111111100001001,
1111111110011110;