memory_initialization_radix=2;
memory_initialization_vector=
0000001100111101,
1111111011010000,
0000001010010000,
1111111011010100,
0000000100100110,
0000001011110100,
0000001000101000,
0000001010101000,
1111111101001101,
1111111111101011,
0000000000101101,
0000001011001000,
1111111101101000,
1111111100000011,
0000000100010001,
0000000110011011,
0000000101010001,
1111111011110110,
1111110110100001,
1111110011000101,
0000000100100001,
1111111001001011,
0000000111100101,
1111111100100110,
1111110000110101,
0000000000100111,
0000001100010000,
0000001101011001,
0000000000100100,
1111110101100110,
1111111000111000,
1111111110101000,
0000000010010010,
1111101101000100,
1111111100100011,
1111111001101110,
0000000011011000,
1111110011011110,
0000001010101101,
1111110011000001,
1111111111000111,
0000001101010110,
1111111001101110,
1111110110111110,
1111111110110101,
1111111011101011,
1111101011111001,
0000000100101001,
1111110111101101,
0000000110101011,
1111111001111101,
0000011000100110,
0000000101100101,
1111111101010100,
0000001011101100,
0000000011011011,
1111111111010111,
1111111010100011,
0000000011001101,
0000001111010110,
1111111001000011,
0000000100110111,
0000000010100001,
1111111011000000,
0000000011111101,
1111111000100101,
0000000111001001,
1111111000100111,
0000000001110111,
0000001100101101,
0000000001110100,
0000000010110110,
1111111001101011,
1111111011101011,
1111111011000111,
1111111110100100,
0000001010010110,
1111110011110000,
0000001010011100,
0000000101011000,
0000001000010101,
1111110101111000,
0000000110101100,
0000000000000000,
0000000000000110,
1111111111001010,
1111110001110000,
0000000010100011,
1111111010011011,
0000000001001100,
0000001001111100,
0000000011010011,
1111101110010011,
1111110111011101,
0000000111001111,
0000001101000011,
1111111100011010,
1111111110010011,
0000010010111000,
0000001110011000,
1111110110011000,
0000001001011010,
1111110101101100,
1111111001011111,
1111111110011110,
0000000000110011,
0000000011100010,
1111111111010110,
0000000100100010,
0000000000001000,
0000000011101101,
0000000100000110,
1111111010011000,
0000000010110110,
1111111111001101,
1111110100110110,
0000000011010001,
0000001001101110,
1111110110010110,
0000010000000110,
0000000011111110,
1111111010010111,
1111111110110100,
1111111111110100,
0000000110010111,
1111101101001110,
1111111000001101,
0000000100010100,
0000000101111101,
0000001010000000,
1111101001100011,
1111111010100101,
0000000011101001,
1111111000011100,
0000001100111100,
1111110101100101,
1111111111111110,
0000010011001111,
0000000011011010,
0000000010110011,
0000001010100110,
1111111001110011,
1111111111010101,
1111111101001010,
0000010010101101,
1111111111110011,
0000000001000111,
1111101100100110,
0000001100111101,
0000001011001010,
0000001111011110,
0000000011000010,
0000010111000110,
0000000001111110,
1111110010010101,
1111111001000001,
0000001011111010,
0000000110010101,
1111111001101000,
0000001001000010,
0000000111000010,
1111111101111111,
0000000011000111,
0000000000111000,
0000000010111101,
0000000001111010,
0000000001100110,
0000001011001100,
0000000101100001,
0000000101011001,
0000001001011000,
1111110110010101,
1111111100011011,
0000000010001011,
1111111000101011,
0000000111101011,
0000000001011000,
0000000000001100,
1111111100011000,
1111110110010010,
0000001011001001,
0000001011100001,
0000000011100101,
1111111100101000,
0000000010100010,
1111111011000101,
0000000110000110,
1111101101101111,
0000000010001111,
0000000000100111,
1111111100000110,
0000000011001010,
1111110000011110,
0000000100011100,
1111111001111001,
1111110011010101,
1111111100000111,
0000001111010111,
0000000000000011,
0000000001111110,
0000000001110011,
1111110011001001,
0000000100000001,
1111111110110101,
0000001011001001,
1111110100010010,
0000000010100001,
0000000110011111,
0000000010111101,
1111111010000000,
0000000001001000,
0000000110001011,
1111111101001000,
0000001000101001,
0000001101011001,
0000000110001111,
0000000010101010,
1111111010000011,
1111111001101100,
0000001001101110,
0000000100110000,
1111111111010010,
0000000011111010,
0000000011101001,
0000000100110110,
1111110001010011,
0000011010100101,
0000001100000100,
0000001101010010,
1111110101101001,
0000001011000110,
0000000011111001,
1111111111010110,
1111111000101001,
0000000101110101,
1111110000101111,
0000000100001011,
0000000100110100,
0000000010011110,
0000010000000111,
1111111011001000,
1111110010100000,
0000000001101100,
0000010001001011,
0000001110011000,
1111111111101010,
1111111001000111,
0000000000011011,
1111110111010001,
1111111011011000,
1111111010000110,
1111111100001101,
0000000011010111,
0000000011111110,
1111111011001010,
1111111010000101,
0000001000101011,
0000000000101110,
1111101111010001,
0000000000010110,
1111111000101111,
1111111110100100,
0000000011101111,
0000000100111011,
1111111001001010,
0000000110011100,
0000000110010000,
0000000000000111,
0000000000111111,
1111101010111111,
1111111001100110,
0000000100010111,
1111111010011110,
0000000010110100,
0000000001111011,
1111111100101110,
1111101111000100,
1111110011000000,
1111111011111100,
0000000111001100,
0000000111000001,
1111110100111001,
0000000001110101,
0000001000011001,
1111100011001011,
0000000010001100,
1111111011101100,
1111111110001100,
1111101110100110,
1111111010111011,
1111111100000111,
0000000010110010,
1111110110101000,
0000000000011111,
1111110110001011,
1111111000110000,
1111111101000100,
1111110110101001,
0000000011010011,
1111111111111010,
1111101011100111,
1111110100010101,
0000001011101100,
1111111110100000,
1111110100100000,
1111111111011111,
1111110100001101,
1111110101001111,
1111111110111010,
0000001111011110,
1111110001011010,
1111111111110000,
1111111000000001,
1111110111101011,
0000001111110010,
1111111111000010,
1111110000010110,
1111111011000101,
1111110000111101,
0000000010011011,
1111110100110101,
1111110010110000,
1111111100101010,
0000000010100110,
1111111001110010,
1111111011000010,
0000000100010011,
0000000000000000,
1111111100100000,
0000000110000011,
1111111110000101,
1111110100010010,
1111111100111010,
0000000111001110,
0000001000000000,
1111110110111011,
1111111101011100,
1111111110111001,
1111110010001101,
0000000110011110,
1111111010000011,
1111111110110011,
0000000010010100,
1111101110011110,
1111111111011011,
1111111100111101,
1111101110001000,
0000000001001001,
1111110101111111,
0000000011001110,
0000000010000010,
1111101100110100,
1111110010101001,
1111110100110110,
1111110101000000,
0000000111111101,
0000000000001000,
1111110000110110,
0000001010010111,
1111111010100101,
1111100101010001,
1111110110111011,
0000000101101001,
1111111100000111,
0000001001111010,
0000001101001100,
1111111100001000,
1111101101111101,
0000000100010010,
0000000000100011,
1111111101101010,
0000000001011111,
0000000011111100,
0000001110111100,
1111111111010011,
0000000101100011,
0000001001010010,
0000010000101100,
1111111010111101,
0000000111110001,
1111110010110111,
1111111010011001,
0000001110101110,
0000001000110111,
1111111101111100,
1111111001011101,
1111111100010111,
0000000111010000,
0000010101111101,
1111111000100111,
0000000011100010,
0000001100101001,
0000000001011001,
0000000000000110,
1111111100000001,
1111111000000100,
0000000111100000,
1111111111011111,
0000000000000000,
1111110000110100,
1111111010001010,
1111111111010010,
0000000000011101,
1111111101101000,
0000001001001111,
1111111101001110,
1111110000001010,
0000000100110101,
0000000100011110,
1111111001000111,
1111110000000101,
0000000110011010,
1111111010100011,
0000000001001111,
0000000110000000,
0000010010001111,
0000000000010001,
0000000100110011,
1111101110110111,
0000000110010011,
1111111001110010,
0000000000000110,
1111111111100011,
1111111110000100,
0000001010001110,
1111111101010111,
1111111111100000,
0000000000001110,
0000000100011001,
1111101111111111,
1111111010001100,
0000001011111001,
1111101101100101,
1111110111110010,
0000000100111010,
1111110111111000,
0000001000001001,
0000001100101011,
0000000010011001,
1111111111011100,
1111110100000000,
0000000110000110,
1111110010010001,
1111111011001111,
1111111100110111,
1111111010110100,
0000001001001001,
1111110111011010,
0000000010001010,
1111111001000100,
1111110010100111,
0000000010111011,
1111111001101001,
1111110001101011,
1111111101100100,
1111111001110001,
1111110110010010,
0000000101011000,
1111110010110001,
0000001001001000,
1111111101000111,
0000000010110010,
1111110111101100,
0000000010110110,
0000001011011100,
0000000101101101,
1111110111001001,
0000001011100100,
1111110111110011,
0000000011010101,
1111111010000000,
0000000011111111,
1111110011101110,
1111111001011100,
0000001000110100,
0000000001010000,
1111111001010100,
0000001001000011,
1111110110001000,
0000001010101101,
1111111010011101,
0000001110011011,
0000000100111100,
1111111101100100,
1111111011100001,
0000010110101101,
0000000000001111,
0000000000000111,
0000000100111110,
0000001010011010,
0000000001101110,
1111111111011001,
1111111101100101,
1111101110100111,
0000000111100111,
1111111001001101,
0000000000101010,
1111111010100011,
0000000000110011,
1111111110101100,
0000000010010000,
1111111001000000,
1111110100110100,
1111111001101000,
1111111111100010,
1111100110011101,
0000000011001010,
1111110000010111,
0000000010001101,
0000000001001010,
0000000101111110,
1111111011111001,
0000000011100101,
0000001000110001,
1111111110001011,
0000000110111010,
0000000111100010,
1111101111010010,
1111111000001111,
1111111100100110,
1111111100000010,
1111111111100110,
1111111010111000,
0000001001111010,
1111111100111100,
0000001100101100,
0000000001100001,
1111110101101110,
0000000000111101,
1111110101111111,
0000011000010100,
1111111111001110,
1111111111110001,
0000001000011101,
1111111100101010,
1111111000001010,
0000000111011101,
0000000110111100,
1111110001010100,
1111111101101110,
0000001101001111,
0000000110101000,
0000000111100001,
0000001111110100,
1111110110010101,
1111111111101000,
1111110001111101,
0000001000101011,
1111110100101101,
1111110100001001,
1111111001111110,
0000000111001000,
0000000110110101,
0000000001110101,
1111111000010110,
0000000110010010,
0000000110100010,
0000001010110011,
1111111010001010,
1111101011011011,
0000000011101110,
1111111001111110,
0000001010000101,
1111111000101000,
0000000111100001,
1111101111001101,
1111110111001111,
0000001111011110,
1111111010100111,
1111111011010010,
1111110010001011,
1111110100001100,
0000001111110101,
1111110110101100,
0000000001100011,
0000000001001011,
1111110101011000,
1111111111111000,
0000000110011101,
0000000001011101,
0000001000110011,
0000000001011100,
1111111101000001,
1111111111101111,
1111111101110010,
0000001111110110,
0000000101010100,
1111111001010011,
1111111111101010,
1111110100011101,
0000000100111010,
0000000010101011,
1111111010100011,
1111111010010111,
1111110000101101,
0000000011010010,
0000000010010110,
0000000000100010,
1111110000001011,
0000001011000001,
0000001100010000,
1111110100001010,
1111111010011011,
1111111000100100,
0000001011011001,
1111110011011001,
1111111110001010,
0000001101011001,
0000001001011110,
1111111101011001,
1111111001100110,
1111111010000011,
1111111101000011,
0000000001010001,
1111101101000100,
1111111101001001,
0000000011110111,
0000000011100001,
1111111011000111,
0000000110010000,
0000000100101001,
1111111100100100,
1111111111110111,
0000000010101000,
0000001110100111,
0000000001000001,
1111110101000110,
1111110011101100,
0000000011100100,
1111111100000001,
1111110010110101,
0000000100010111,
0000000110010100,
0000001010011001,
1111101110111000,
0000000010010101,
0000000111110100,
0000000010110111,
0000000011010000,
1111111111010101,
1111110100101010,
1111111110100111,
1111111110000011,
0000000111101111,
1111110010111011,
0000000110000101,
0000010011000110,
0000011100011100,
1111111101001101,
0000000001000111,
1111110001000000,
1111110111000101,
1111111000110111,
1111111100010100,
1111110111000101,
1111111100111011,
0000000100001111,
0000000001110100,
1111110100011010,
1111110101001101,
1111111111111111,
1111110111011110,
0000001000000110,
0000001100110011,
1111110100000111,
0000001110011000,
1111111101010000,
1111111011101101,
0000000010011000,
1111110011100001,
0000001011100100,
1111111011011000,
1111110110011010,
0000000100011111,
1111111010010001,
0000000110100010,
0000001001001110,
1111111110000001,
1111111010100100,
0000001001111110,
0000010101111001,
0000000001101000,
0000000110010100,
1111111011001101,
0000000000101110,
1111111101101010,
1111111100011000,
1111111011100110,
0000000101000101,
0000001011000001,
0000001101001111,
1111111011000011,
1111111011011000,
0000000000111111,
0000000001001011,
0000000101101100,
0000000111100011,
1111111101001111,
1111111000011101,
0000000101011101,
0000000100110010,
0000000011010000,
0000000001001110,
0000000100101110,
1111111010000011,
0000000101001101,
1111111110000110,
1111111011011110,
1111111100011100,
1111110101000101,
1111111100010100,
1111110110111101,
0000000011111110,
1111111010001110,
0000000001001011,
0000001010000000,
0000000111011011,
1111111100100011,
1111111011000101,
0000001001010110,
0000010000010100,
1111110111110011,
1111111110001111,
0000000001110100,
1111110110111101,
0000001011001110,
1111111010110110,
1111111100010000,
0000001000000011,
0000001011100010,
1111111110111001,
1111111010100101,
1111111001111100,
0000001000011011,
1111110010010011,
0000001111000001,
1111111100000110,
0000001011010111,
1111110001110010,
1111111000101110,
1111110101011001,
1111111000011000,
1111110111100110,
1111111000100001,
1111111010111010,
1111111010010111,
1111111000110111,
0000001010110100,
0000000100110000,
0000000001001001,
0000000100110011,
1111110111101000,
0000010111100000,
1111111000110011,
0000000100001101,
1111111111000001,
1111111101110111,
1111111111111101,
0000000000010111,
1111111010110011,
1111101011010101,
0000001111111000,
0000000001000111,
1111111111111101,
0000000101111001,
0000001010110000,
1111110101010011,
0000000111010000,
1111111101011001,
1111110101111101,
0000010100110010,
0000000111110001,
0000001100101000,
0000000100101110,
1111111101011101,
0000000011111011,
1111111011110011,
1111111010001010,
0000001101111110,
1111110111111110,
0000001111000001,
0000010111110001,
0000000100101110,
0000000111100010,
1111111101011111,
0000001110100111,
1111111010110001,
1111111010010111,
0000001100111000,
0000000100011011,
1111111011010100,
1111110110101100,
0000001000000111,
1111111111011001,
1111111111100100,
1111111101101000,
0000001011010000,
1111111001110110,
1111111010011010,
1111110011101010,
0000000110001110,
0000000110001000,
0000000011111100,
0000001110000010,
1111110010000011,
0000000011110110,
1111101011001110,
1111111000100100,
1111110100101011,
0000000001000111,
1111111001010101,
1111111111010100,
0000000011010000,
0000000100010010,
0000000011000001,
0000000000101011,
0000001111101100,
0000000111110001,
1111111010100101,
0000000001011110,
1111110110101000,
0000000101011010,
1111111111111001,
0000000010110000,
1111111111001110,
1111110100000011,
0000001110101111,
0000010111011101,
0000000001010100,
0000000000001010,
1111111010111000,
1111110101100110,
0000000110000011,
1111111000111000,
0000000101110101,
0000001011111100,
1111111100001001,
0000000110101000,
1111110100000101,
0000000000110000,
0000001111101110,
1111111101000010,
0000001010011101,
0000000101010101,
0000000100110111,
0000001110110111,
0000000110100110,
1111110011110011,
1111110100011111,
1111111100101001,
0000001010000100,
0000000011111011,
1111111111110000,
1111101111011110,
0000000011000100,
1111111001000101,
1111110101111011,
1111111001100101,
0000000000110110,
0000000101110010,
0000001100010011,
0000000001001101,
0000000101100001,
1111111111101110,
1111110101110111,
1111111101110001,
1111111011110101,
0000000001000110,
1111101111011010,
1111111000101101,
1111111011011001,
1111111011100110,
0000001001110001,
0000010100010001,
1111110101000100,
1111111010010000,
1111101111101000,
1111110001110001,
1111110000101101,
1111111010000100,
0000000001110000,
0000001001111011,
1111111010110001,
1111111000011111,
1111111001101101,
0000001010110000,
1111101111000100,
0000001011101011,
1111110000111011,
1111111010010001,
1111111101010011,
0000000001011011,
0000000001000100,
0000001001011100,
0000000001010101,
1111111101100001,
1111111000100110,
0000001001011000,
1111111010001101,
1111111101001000,
0000011000100011,
1111101011111111,
1111111101111101,
1111111011000010,
1111111110100110,
0000001000111011,
0000001000010010,
0000000101110001,
1111111110001011,
1111111101100000,
0000000101000100,
1111111000010100,
0000000101001101,
0000000110100001,
1111111010111010,
1111110101011010,
1111110100011110,
1111110110110001,
0000001110000001,
1111111011110111,
0000000011110001,
1111111111110010,
0000001000111000,
1111111010100100,
1111111110000110,
0000000111101110,
0000000110100001,
0000000100100010,
0000000011001101,
1111110001100111,
0000001111111010,
0000000001101100,
1111111111110010,
1111111011001100,
0000001110001001,
1111111011111000,
0000000101100100,
0000000010101100,
1111111101011110,
0000001000000001,
0000000101010101,
0000000000111011,
1111111011010110,
1111111100010000,
1111110011011011,
1111110110000101,
1111110110000000,
1111111100011100,
0000000110100010,
0000000010100000,
0000000011111000,
0000001100100111,
1111111100011000,
0000000100111110,
1111110101110001,
0000000000110100,
0000010010111101,
1111111100010101,
0000000001100001,
1111101100011110,
1111110011011001,
0000000000011010,
0000001000110001,
0000000101111010,
1111111011011101,
1111110101110110,
1111111011000011,
1111111100001111,
1111111100011100,
0000000111110111,
1111111000111001,
0000001011001100,
1111110001010111,
0000000001000011,
1111110011101010,
0000000110101001,
0000000011010001,
0000000000100001,
1111111010001111,
0000000010010110,
1111110101011110,
1111111110110011,
0000000100101000,
0000000010000001,
0000000101101001,
0000001011011000,
0000000111001001,
0000000000110001,
0000000111101110,
0000000000010001,
0000001110011011,
0000001010000101,
1111111100011000,
1111111010111001,
0000001110000111,
1111110100000011,
0000001000001101,
1111111001000110,
0000000011000011,
0000001000011111,
0000001000100011,
0000001101000001,
1111101111001000,
1111111100000000,
1111110111001011,
1111111101010011,
1111111010010011,
1111110010101111,
1111111110011011,
1111111010010111,
0000001001101000,
1111110111110000,
0000001100001010,
0000000111101010,
1111110111111100,
0000000110011000,
0000000111000100,
1111111100100111,
0000000000010111,
1111110101101110,
1111111001000010,
1111111111110100,
1111111101111010,
1111111001001111,
1111111110010010,
0000001001101110,
1111111111111100,
0000001000111111,
0000000001011110,
0000000011101111,
1111110111111001,
1111110100101101,
0000001110101101,
1111110100010100,
0000000011010111,
1111110000101010,
1111101101001011,
1111110110000010,
1111110111100101,
0000000011001001,
0000001000101000,
0000001001001110,
1111111100010101,
0000001001110011,
0000001110100100,
0000001011000101,
0000001111111000,
0000001000111000,
1111111110000000,
0000001001010010,
1111111110010011,
0000000001110101,
0000000110110101,
1111111011101011,
1111111010100011,
0000000011011000,
0000000100010101,
1111110101101010,
0000000010010111,
1111111110000011,
0000000010110000,
1111110110010011,
0000000001101100,
0000001101101001,
0000000101011101,
1111111110111110,
0000000010001100,
0000011111000100,
1111111100100111,
1111111001010101,
0000000010111110,
1111111111011011,
1111110101110010,
1111110100010100,
0000000010110110,
1111111001001101,
1111111001100111,
1111110111101000,
1111111100111011,
0000001010101101,
0000000001100011,
0000000101001011,
0000000101100111,
0000000101011000,
0000000110000001,
0000000001001011,
0000001000010100,
1111111001001010,
1111111110100011,
1111111010110011,
0000000001111000,
0000001010111110,
1111111000011000,
1111101101100001,
0000000101101110,
1111111000110101,
0000001100101011,
1111111100011101,
0000000011011110,
0000000111000110,
1111111101000000,
1111111010001111,
1111110001001001,
1111111001111001,
1111101111111101,
0000000101000001,
0000010001000100,
1111111010110101,
1111111101000101,
0000001101001011,
1111110000000000,
0000000000101101,
0000010000010101,
1111111110011001,
0000001000101101,
0000000000110011,
1111111000010001,
1111111011001001,
1111110010011011,
1111111011000111,
0000000101010010,
0000001100001101,
1111111101110101,
1111111110000101,
1111111010110101,
1111111110100100,
0000001001010110,
1111111011100101,
0000000110000001,
1111110110011111,
1111110111001111,
0000000110110100,
1111110111000001,
0000000110110010,
1111101111110111,
0000000001000101,
1111111011101001,
1111110111000001,
1111111111110100,
1111110011110101,
1111110101110101,
0000001000110100,
1111111001001011,
0000001001001010,
1111110110001100,
0000001110101000,
0000000001101100,
0000000110001101,
0000010001010001,
0000001001011100,
0000000100101000,
1111111110111000,
0000001010110111,
0000000001100000,
1111110111001011,
0000000010010010,
1111110010001001,
1111111011101001,
0000000000011011,
0000000000010011,
0000001001010011,
0000001000010110,
1111111010110100,
1111110000110100,
1111111000101110,
1111111101000000,
1111111100111010,
0000001010100010,
1111110010000101,
0000001100110000,
0000001000111011,
1111111010010101,
0000000100011111,
1111111110110110,
0000001100000110,
1111111100110000,
1111110000011111,
0000000011111001,
0000000011001001,
0000000000000111,
1111111000101010,
0000000100001000,
0000000100101101,
0000000001101001,
1111111100110010,
0000000100000001,
1111110110000000,
1111110000110100,
0000000011011001,
0000001000110100,
0000000010001010,
1111110001101011,
0000001010011100,
0000001000011001,
1111111010000101,
1111110100011010,
1111111010111010,
0000000000001111,
1111110010110101,
1111110011111001,
0000010010000001,
0000001100110010,
1111111110000011,
1111110101110010,
1111111111110111,
1111101111010100,
0000010001101110,
1111111000101011,
1111111101111000,
0000010110101011,
0000000111100000,
0000001011100000,
0000000110101111,
0000000011000100,
1111111011101111,
1111111100100101,
1111110001110010,
0000010010111100,
0000000110001111,
1111111110111111,
0000000010010110,
0000001001000011,
0000001010011010,
1111110101010000,
0000001110101010,
0000000010010010,
0000001001011001,
1111110001100000,
0000001000001011,
0000010000010010,
0000000011011100,
1111111100101110,
0000000100111001,
0000000011010000,
1111111101111100,
1111111110100011,
0000000000110000,
0000000010100100,
0000000001010001,
1111111010110000,
1111111111010111,
0000001110101110,
1111111001000111,
1111111011101111,
1111111110111101,
0000000101011111,
0000001101101011,
0000000010111000,
1111101111010101,
0000001000100010,
1111111101010100,
0000010110111100,
0000001000000110,
0000000000101000,
0000001111110011,
1111111110100101,
1111111001010101,
1111101110100000,
1111111010111110,
0000000101000101,
0000000010001111,
1111111010101000,
0000000011110101,
1111100100100001,
0000000010011000,
0000001010000100,
1111111111001101,
1111110010010000,
0000000001111110,
1111101111100100,
0000010010010100,
0000001010010011,
1111101110010000,
0000000011100001,
1111110110110101,
0000001001010111,
0000000000001101,
0000001011010010,
1111111110100010,
0000010111110100,
1111111110000011,
0000000011001100,
1111111011011001,
1111111110101110,
0000000110000100,
1111111101010001,
0000000110000110,
1111111101010110,
1111101111000000,
0000001011000110,
1111111101000000,
0000000110001010,
0000000111110001,
1111110101011001,
1111111111000000,
0000001100001010,
0000000100101000,
1111110011000101,
0000000100011010,
0000000101100001,
0000000100111001,
1111111010011011,
0000000101000001,
1111111100000000,
1111111010000101,
0000011000111101,
1111111111000100,
1111111011011110,
1111111010010100,
1111111101101100,
0000010000010100,
1111111100001100,
0000000010100110,
1111110111111100,
1111111100110000,
1111101110111101,
1111101101000010,
1111110111101110,
1111110100010110,
1111111101001011,
0000000010001101,
0000000001101111,
0000000001000100,
1111111010111101,
0000000000000100,
0000011000010001,
0000000010010110,
0000000110111111,
1111110110111100,
1111111100000010,
0000000101000011,
0000001110010000,
1111111111111111,
1111111001110111,
0000000101100001,
0000001001101111,
1111101000101111,
1111110101101100,
0000000101010101,
0000001000111110,
1111111110000010,
0000000101100110,
0000000011101010,
1111101110100011,
0000001011100101,
1111110101110011,
0000000001000110,
0000001001111110,
0000000001001110,
0000000100001110,
1111110011011111,
1111111101010111,
0000010101010011,
1111111101011110,
0000001010110111,
0000000010001101,
1111111111100001,
0000010101010110,
1111110110011111,
0000001100001111,
0000000101101101,
1111111011011110,
1111111000111111,
1111111101111111,
0000001000011101,
1111111110011100,
1111110001111000,
1111111100010110,
0000001001000101,
1111111100001111,
0000000011000000,
0000010010001110,
1111110101001000,
0000010011011111,
1111101101110010,
1111111010010000,
1111111110110110,
0000001000101010,
1111110110101101,
0000001000001111,
1111100101010110,
0000001011110101,
0000000101101111,
0000000110110000,
1111111101000010,
0000000110111011,
1111111100000101,
0000001001001110,
1111111110001001,
0000001111101000,
1111111111111111,
0000001001100100,
0000001101010110,
0000001001001001,
1111110100000101,
0000001100111001,
1111111010000110,
0000000011011010,
0000000101010010,
1111110100001001,
0000000111110001,
1111111011000101,
1111111000011101,
0000001000001001,
0000000111011010,
1111111011111000,
1111111101000001,
0000000101111101,
0000010000011011,
1111110011100110,
0000000001100010,
0000010011110010,
0000010001011000,
0000001111100001,
0000001101110100,
0000001011000010,
0000000101100010,
0000001011101001,
1111111110001100,
0000001000101000,
0000001010011111,
1111110000001011,
0000001011001111,
1111111100110101,
0000000001010100,
1111110010001001,
0000000010010001,
1111111101000110,
1111111110111000,
1111110100101001,
0000000100001011,
1111110000111010,
1111111011111001,
0000001101110110,
0000000110000000,
0000000011011010,
1111111101101100,
0000001011010010,
0000000010100100,
1111111111111000,
1111110110110111,
0000000101101101,
1111111100111001,
0000001001111000,
0000000111111011,
1111111000101001,
1111111111100111,
1111111110010110,
1111111100010000,
0000000001001001,
1111111111010100,
1111101110000101,
1111110011000001,
0000001000101111,
1111111110111001,
1111111111101100,
1111111100110100,
1111111000000111,
0000000000111110,
1111110000011111,
1111101110001111,
1111111011111100,
0000001111110111,
0000000000010011,
0000000101010011,
0000001011001000,
1111111011001110,
1111111101110101,
0000000101011011,
0000000011011001,
1111110100111001,
0000001100000010,
0000000010011101,
1111100111011101,
0000000111101101,
0000000100001010,
1111110010111001,
0000001100100111,
1111110110101111,
0000000101010111,
0000010110110000,
0000000010101100,
0000000111110110,
1111111101010101,
1111110110100100,
0000010011010100,
1111111111010000,
0000001010011101,
1111111100011101,
1111111100000001,
0000001011011001,
1111101011001111,
1111111011100001,
0000001011110110,
1111111011111010,
0000001000011101,
0000000010011101,
0000000000101011,
1111111010011011,
1111111000010110,
1111111001000100,
0000010100010111,
0000000001111110,
1111111100101110,
0000001101001111,
0000000010100110,
1111110100000011,
0000001001000100,
1111111101010110,
1111111001010111,
0000000001110110,
1111111000010100,
0000001001011111,
0000000101001001,
1111111001101100,
1111110110011001,
0000000001111100,
0000000011001011,
1111110101000011,
0000000111100011,
0000010011111011,
0000000100111101,
0000000010101010,
0000001111000011,
0000000001100100,
1111110001101000,
0000010001100011,
1111111010010111,
1111111100011001,
0000001001001011,
0000001100110000,
1111110111100110,
0000001101001000,
1111111001111011,
1111111101110101,
1111110101100010,
1111111001111010,
0000000000000000,
1111111000011011,
1111100100111011,
0000000101111100,
0000000010110001,
1111111111000000,
0000000010000100,
0000000110101000,
1111110110000000,
1111111000111001,
0000000000011111,
1111111111011111,
0000000011001111,
1111110001111000,
0000000000101110,
0000000001010011,
0000000111011111,
0000000101000101,
1111110111000110,
0000000101001111,
0000001111110101,
1111111010100110,
1111111011010000,
0000000110001001,
0000000100000000,
0000010001011011,
0000000100100011,
0000000111110101,
1111111010011101,
1111111110100001,
1111110110011100;